{
  "version": "1.0",
  "truncation": null,
  "padding": null,
  "added_tokens": [
    {
      "id": 0,
      "content": "<|endoftext|>",
      "single_word": false,
      "lstrip": false,
      "rstrip": false,
      "normalized": false,
      "special": true
    },
    {
      "id": 1,
      "content": "[PAD]",
      "single_word": false,
      "lstrip": false,
      "rstrip": false,
      "normalized": false,
      "special": true
    }
  ],
  "normalizer": null,
  "pre_tokenizer": {
    "type": "ByteLevel",
    "add_prefix_space": false,
    "trim_offsets": true,
    "use_regex": true
  },
  "post_processor": {
    "type": "ByteLevel",
    "add_prefix_space": true,
    "trim_offsets": false,
    "use_regex": true
  },
  "decoder": {
    "type": "ByteLevel",
    "add_prefix_space": true,
    "trim_offsets": true,
    "use_regex": true
  },
  "model": {
    "type": "BPE",
    "dropout": null,
    "unk_token": null,
    "continuing_subword_prefix": null,
    "end_of_word_suffix": null,
    "fuse_unk": false,
    "byte_fallback": false,
    "vocab": {
      "<|endoftext|>": 0,
      "[PAD]": 1,
      "!": 2,
      "\"": 3,
      "#": 4,
      "$": 5,
      "%": 6,
      "&": 7,
      "'": 8,
      "(": 9,
      ")": 10,
      "*": 11,
      "+": 12,
      ",": 13,
      "-": 14,
      ".": 15,
      "/": 16,
      "0": 17,
      "1": 18,
      "2": 19,
      "3": 20,
      "4": 21,
      "5": 22,
      "6": 23,
      "7": 24,
      "8": 25,
      "9": 26,
      ":": 27,
      ";": 28,
      "<": 29,
      "=": 30,
      ">": 31,
      "?": 32,
      "@": 33,
      "A": 34,
      "B": 35,
      "C": 36,
      "D": 37,
      "E": 38,
      "F": 39,
      "G": 40,
      "H": 41,
      "I": 42,
      "J": 43,
      "K": 44,
      "L": 45,
      "M": 46,
      "N": 47,
      "O": 48,
      "P": 49,
      "Q": 50,
      "R": 51,
      "S": 52,
      "T": 53,
      "U": 54,
      "V": 55,
      "W": 56,
      "X": 57,
      "Y": 58,
      "Z": 59,
      "[": 60,
      "\\": 61,
      "]": 62,
      "^": 63,
      "_": 64,
      "`": 65,
      "a": 66,
      "b": 67,
      "c": 68,
      "d": 69,
      "e": 70,
      "f": 71,
      "g": 72,
      "h": 73,
      "i": 74,
      "j": 75,
      "k": 76,
      "l": 77,
      "m": 78,
      "n": 79,
      "o": 80,
      "p": 81,
      "q": 82,
      "r": 83,
      "s": 84,
      "t": 85,
      "u": 86,
      "v": 87,
      "w": 88,
      "x": 89,
      "y": 90,
      "z": 91,
      "{": 92,
      "|": 93,
      "}": 94,
      "~": 95,
      "º": 96,
      "Ã": 97,
      "Ċ": 98,
      "Ġ": 99,
      "Ġt": 100,
      "in": 101,
      "Ġa": 102,
      "Ġc": 103,
      "Ġs": 104,
      "he": 105,
      "re": 106,
      "on": 107,
      "er": 108,
      "nd": 109,
      "es": 110,
      "Ġb": 111,
      "Ġo": 112,
      "Ġthe": 113,
      "ed": 114,
      "Ġp": 115,
      "Ġm": 116,
      "at": 117,
      "Ġand": 118,
      "il": 119,
      "ar": 120,
      "Ġw": 121,
      "Ġf": 122,
      "it": 123,
      "en": 124,
      "ut": 125,
      "Ġto": 126,
      "le": 127,
      "ing": 128,
      "ic": 129,
      "as": 130,
      "Ġin": 131,
      "ou": 132,
      "an": 133,
      "al": 134,
      "or": 135,
      "up": 136,
      "ro": 137,
      "Ġd": 138,
      "po": 139,
      "Ġg": 140,
      "Ġcup": 141,
      "Ġl": 142,
      "poon": 143,
      "un": 144,
      "Ġ1": 145,
      "ac": 146,
      "Ġco": 147,
      "pp": 148,
      "red": 149,
      "el": 150,
      "is": 151,
      "ion": 152,
      "ith": 153,
      "Ġwith": 154,
      "ve": 155,
      "Ġch": 156,
      "Ġon": 157,
      "Ġof": 158,
      "ow": 159,
      "ak": 160,
      "ts": 161,
      "ge": 162,
      "ab": 163,
      "Ġmin": 164,
      "Ġe": 165,
      "dd": 166,
      "Ġun": 167,
      "ot": 168,
      "til": 169,
      "to": 170,
      "eas": 171,
      "ly": 172,
      "les": 173,
      "Ġh": 174,
      "ce": 175,
      "Ġ(": 176,
      "our": 177,
      "am": 178,
      "us": 179,
      "Ġuntil": 180,
      "ver": 181,
      "ter": 182,
      "ol": 183,
      "gh": 184,
      "Ġfor": 185,
      "In": 186,
      "Ġor": 187,
      "ok": 188,
      "Ġpe": 189,
      "ions": 190,
      "ix": 191,
      "Ġst": 192,
      "ra": 193,
      "ri": 194,
      "ien": 195,
      "ables": 196,
      "Ġminut": 197,
      "redien": 198,
      "redients": 199,
      "ir": 200,
      "alt": 201,
      "ĠC": 202,
      "lic": 203,
      "ick": 204,
      "um": 205,
      "ct": 206,
      "easpoon": 207,
      "Ġteaspoon": 208,
      "ablespoon": 209,
      "ĠS": 210,
      "heat": 211,
      "Ġminutes": 212,
      "Ġre": 213,
      "et": 214,
      "ire": 215,
      "ast": 216,
      "pper": 217,
      "Ġtablespoon": 218,
      "ad": 219,
      "Ġth": 220,
      "ill": 221,
      "Ġmix": 222,
      "ch": 223,
      "gar": 224,
      "id": 225,
      "irect": 226,
      "Ġinto": 227,
      "ine": 228,
      "uce": 229,
      "Ġbe": 230,
      "Ġsa": 231,
      "Ġpepper": 232,
      "irections": 233,
      "Ġcho": 234,
      "Ing": 235,
      "Directions": 236,
      "Ingredients": 237,
      "itle": 238,
      "Title": 239,
      "Ġle": 240,
      "Ġsalt": 241,
      "Ġsu": 242,
      "Add": 243,
      "Ġ3": 244,
      "ake": 245,
      "Ġcook": 246,
      "Ġ2": 247,
      "res": 248,
      "ll": 249,
      "Ġfl": 250,
      "Ġbut": 251,
      "Ġoil": 252,
      "Ġover": 253,
      "ice": 254,
      "Ġheat": 255,
      "ure": 256,
      "ur": 257,
      "lac": 258,
      "Ġgr": 259,
      "igh": 260,
      "pped": 261,
      "om": 262,
      "Ġy": 263,
      "ese": 264,
      "sp": 265,
      "Ġn": 266,
      "ater": 267,
      "Ġj": 268,
      "Ġche": 269,
      "im": 270,
      "Ġsugar": 271,
      "gg": 272,
      "out": 273,
      "ĠP": 274,
      "all": 275,
      "ound": 276,
      "Ġr": 277,
      "Ġsauce": 278,
      "ato": 279,
      "Ġcups": 280,
      "ces": 281,
      "Ġwh": 282,
      "Ġsp": 283,
      "Ġbutter": 284,
      "ry": 285,
      "ĠB": 286,
      "icken": 287,
      "arge": 288,
      "Ġwater": 289,
      "Ġtablespoons": 290,
      "ate": 291,
      "edi": 292,
      "Ġbro": 293,
      "owl": 294,
      "Ġbowl": 295,
      "ven": 296,
      "em": 297,
      "Ġpan": 298,
      "Ġlarge": 299,
      "ĠT": 300,
      "Ġchopped": 301,
      "her": 302,
      "Ġab": 303,
      "ream": 304,
      "Ġegg": 305,
      "ay": 306,
      "Ġgar": 307,
      "edium": 308,
      "Ġadd": 309,
      "eat": 310,
      "qu": 311,
      "Ġcheese": 312,
      "Ġit": 313,
      "Ġmedium": 314,
      "ough": 315,
      "Ġsh": 316,
      "Ġabout": 317,
      "ach": 318,
      "Ġslic": 319,
      "Ġsm": 320,
      "Ġis": 321,
      "resh": 322,
      "st": 323,
      "ell": 324,
      "Ġfro": 325,
      "ture": 326,
      "ight": 327,
      "Ġcr": 328,
      "Ġso": 329,
      "ely": 330,
      "ove": 331,
      "ip": 332,
      "Ġstir": 333,
      "lace": 334,
      "ves": 335,
      "ie": 336,
      "wn": 337,
      "Ġgarlic": 338,
      "get": 339,
      "Ġmixture": 340,
      "ack": 341,
      "Ġoun": 342,
      "ide": 343,
      "Ġcream": 344,
      "ring": 345,
      "Ġchicken": 346,
      "ish": 347,
      "Ġflour": 348,
      "aking": 349,
      "ĠF": 350,
      "oil": 351,
      "ain": 352,
      "Ġrem": 353,
      "Ġv": 354,
      "read": 355,
      "Ġoven": 356,
      "Ġse": 357,
      "ust": 358,
      "12": 359,
      "Co": 360,
      "ap": 361,
      "Ġfresh": 362,
      "mon": 363,
      "li": 364,
      "ĠM": 365,
      "Ġas": 366,
      "atoes": 367,
      "Ġcan": 368,
      "Ġro": 369,
      "Ġ4": 370,
      "Ġall": 371,
      "erve": 372,
      "Ġbrown": 373,
      "Ġfrom": 374,
      "Ġbaking": 375,
      "os": 376,
      "ilk": 377,
      "Ġonion": 378,
      "if": 379,
      "Ġju": 380,
      "Ġpot": 381,
      "Ġat": 382,
      "Ġeach": 383,
      "ans": 384,
      "od": 385,
      "Ġcom": 386,
      "Ġsk": 387,
      "Ġpl": 388,
      "ĠR": 389,
      "ars": 390,
      "Ġcut": 391,
      "ore": 392,
      "Ġan": 393,
      "let": 394,
      "rain": 395,
      "Ġtom": 396,
      "ated": 397,
      "bsp": 398,
      "Ġoli": 399,
      "nder": 400,
      "Ġtop": 401,
      "Ġjuice": 402,
      "aste": 403,
      "Ġde": 404,
      "Ġsmall": 405,
      "inch": 406,
      "ul": 407,
      "Ġboil": 408,
      "Ġmilk": 409,
      "Ġwell": 410,
      "Ġk": 411,
      "St": 412,
      "ent": 413,
      "bine": 414,
      "Ġred": 415,
      "old": 416,
      "owd": 417,
      "Ġhal": 418,
      "arm": 419,
      "op": 420,
      "col": 421,
      "Ġgre": 422,
      "Ġpie": 423,
      "Ġ5": 424,
      "ĠG": 425,
      "eason": 426,
      "Ġthen": 427,
      "ĠCh": 428,
      "Ġground": 429,
      "Ġolive": 430,
      "Place": 431,
      "ted": 432,
      "imm": 433,
      "Ġremain": 434,
      "ant": 435,
      "ger": 436,
      "ightly": 437,
      "Ġtsp": 438,
      "ard": 439,
      "ink": 440,
      "av": 441,
      "Ġyou": 442,
      "Ġpowd": 443,
      "ĠW": 444,
      "ite": 445,
      "ĠO": 446,
      "se": 447,
      "th": 448,
      "Ġremaining": 449,
      "Ġing": 450,
      "ced": 451,
      "ush": 452,
      "urn": 453,
      "Ġingredients": 454,
      "and": 455,
      "Ġcl": 456,
      "Ġus": 457,
      "Ġare": 458,
      "Ġlemon": 459,
      "Ġex": 460,
      "ff": 461,
      "Ġshe": 462,
      "ood": 463,
      "Ġteaspoons": 464,
      "ĠD": 465,
      "50": 466,
      "orn": 467,
      "Ġeggs": 468,
      "Ġcon": 469,
      "ag": 470,
      "ole": 471,
      "ber": 472,
      "bs": 473,
      "ck": 474,
      "ef": 475,
      "Stir": 476,
      "14": 477,
      "erv": 478,
      "emove": 479,
      "age": 480,
      "ĠA": 481,
      "Remove": 482,
      "Ġ10": 483,
      "hen": 484,
      "rink": 485,
      "lack": 486,
      "oth": 487,
      "Ġhour": 488,
      "Ġpowder": 489,
      "Ġve": 490,
      "colate": 491,
      "gre": 492,
      "ub": 493,
      "Ġsliced": 494,
      "ional": 495,
      "Ġounces": 496,
      "illet": 497,
      "Ġlea": 498,
      "Sp": 499,
      "ĠL": 500,
      "Ġhalf": 501,
      "Bake": 502,
      "Ġdough": 503,
      "Ġcool": 504,
      "ep": 505,
      "Ġonions": 506,
      "gether": 507,
      "Ġtogether": 508,
      "ft": 509,
      "Ġli": 510,
      "Ġounce": 511,
      "immer": 512,
      "ress": 513,
      "Ġlow": 514,
      "art": 515,
      "reheat": 516,
      "me": 517,
      "illa": 518,
      "Ġal": 519,
      "Ġup": 520,
      "we": 521,
      "Ġstirring": 522,
      "Ġskillet": 523,
      "one": 524,
      "ime": 525,
      "Ġgreen": 526,
      "Ġout": 527,
      "anilla": 528,
      "Ġbread": 529,
      "Ġ12": 530,
      "rinkle": 531,
      "iz": 532,
      "Ġtaste": 533,
      "Ġhot": 534,
      "Ġblack": 535,
      "Ġtomatoes": 536,
      "are": 537,
      "Ġmel": 538,
      "Ġble": 539,
      "Ġtbsp": 540,
      "Ġfin": 541,
      "ld": 542,
      "Ġminced": 543,
      "Ġveget": 544,
      "Ġvanilla": 545,
      "ipe": 546,
      "Ġte": 547,
      "fer": 548,
      "erving": 549,
      "Ġif": 550,
      "Cook": 551,
      "Ġdegre": 552,
      ").": 553,
      "Ġslices": 554,
      "Serve": 555,
      "Ġyour": 556,
      "Ġthem": 557,
      "cess": 558,
      "Ġmeat": 559,
      "Ġlet": 560,
      "Ġsl": 561,
      "Mix": 562,
      "Ġchocolate": 563,
      "hed": 564,
      "co": 565,
      "Ġhe": 566,
      "Ġcorn": 567,
      "ile": 568,
      "isk": 569,
      "Heat": 570,
      "Ġdry": 571,
      "Ġsoft": 572,
      "ies": 573,
      "ash": 574,
      "Ġext": 575,
      "Pour": 576,
      "Ġseason": 577,
      "ange": 578,
      "ried": 579,
      "pan": 580,
      "Ġset": 581,
      "riger": 582,
      "able": 583,
      "ass": 584,
      "ave": 585,
      "ork": 586,
      "Ġdegrees": 587,
      "rap": 588,
      "cipe": 589,
      "ley": 590,
      "Ġcooked": 591,
      "Ġpast": 592,
      "ise": 593,
      "Ġpack": 594,
      "Ġsimmer": 595,
      "oss": 596,
      "uff": 597,
      "Ġmore": 598,
      "Ġpound": 599,
      "Ġ30": 600,
      "Ġrice": 601,
      "Ġpre": 602,
      "Ġwhite": 603,
      "rim": 604,
      "Ġthr": 605,
      "Ġpieces": 606,
      "Ġpotatoes": 607,
      "ke": 608,
      "weet": 609,
      "ers": 610,
      "Ġpap": 611,
      "Preheat": 612,
      "iced": 613,
      "uts": 614,
      "ute": 615,
      "Ġserving": 616,
      "inn": 617,
      "oup": 618,
      "Ġcar": 619,
      "Ġside": 620,
      "arsley": 621,
      "Ġfinely": 622,
      "Ġpeel": 623,
      "Ġplace": 624,
      "Ġcover": 625,
      "Ġleaves": 626,
      "room": 627,
      "Ġpro": 628,
      "inegar": 629,
      "Ġseed": 630,
      "Ġsto": 631,
      "Ġserve": 632,
      "Ġdish": 633,
      "hes": 634,
      "ushroom": 635,
      "ĠH": 636,
      "Ġsaucepan": 637,
      "Ġlb": 638,
      "rans": 639,
      "Ġne": 640,
      "Ġ350": 641,
      "ĠI": 642,
      "Ġtender": 643,
      "Ġaside": 644,
      "ĠChe": 645,
      "Ġ15": 646,
      "Ġdrain": 647,
      "ombine": 648,
      "ue": 649,
      "Ġwhole": 650,
      "Ġbeat": 651,
      "con": 652,
      "Ġmar": 653,
      "Ġcombine": 654,
      "Ġparsley": 655,
      "Ġvinegar": 656,
      "Ġ8": 657,
      "Ġsheet": 658,
      "ins": 659,
      "Ġnot": 660,
      "Ġapp": 661,
      "'s": 662,
      "Ġwarm": 663,
      "oves": 664,
      "Cover": 665,
      "Ġgold": 666,
      "ened": 667,
      "akes": 668,
      "cc": 669,
      "ries": 670,
      "Ġthin": 671,
      "ib": 672,
      "ne": 673,
      "Ġgolden": 674,
      "Ġbot": 675,
      "ooth": 676,
      "Combine": 677,
      "ransfer": 678,
      "Ġjust": 679,
      "Ġqu": 680,
      "Ġlightly": 681,
      "atter": 682,
      "Ġcloves": 683,
      "00": 684,
      ".)": 685,
      "Ġ6": 686,
      "Ġmelted": 687,
      "est": 688,
      "ks": 689,
      "Ġcooking": 690,
      "ree": 691,
      "Ġmushroom": 692,
      "ĠE": 693,
      "ame": 694,
      "Ġsmooth": 695,
      "ew": 696,
      "Ġsal": 697,
      "Ġhours": 698,
      "Ġblend": 699,
      "Ġref": 700,
      "Ġthrough": 701,
      "Ġbeans": 702,
      "Ġone": 703,
      "ray": 704,
      "iv": 705,
      "Ġgrated": 706,
      "Ġroll": 707,
      "ss": 708,
      "Ġsc": 709,
      "tom": 710,
      "Ġwill": 711,
      "Ġ-": 712,
      "ĠTbsp": 713,
      "amon": 714,
      "fore": 715,
      "ess": 716,
      "Ġbeef": 717,
      "Ġ20": 718,
      "Ġdiced": 719,
      "ps": 720,
      "pping": 721,
      "innamon": 722,
      "per": 723,
      "Ġcrum": 724,
      "Ġbefore": 725,
      "Ġtill": 726,
      "ded": 727,
      "ds": 728,
      "Ġlo": 729,
      "salt": 730,
      "Ġthick": 731,
      "Ġliqu": 732,
      "Ġtomato": 733,
      "Ġturn": 734,
      "Ġrefriger": 735,
      "ian": 736,
      "Cut": 737,
      "inger": 738,
      "Ġuse": 739,
      "ately": 740,
      "ome": 741,
      "Ġwine": 742,
      "Ġinch": 743,
      "ustard": 744,
      "Ġmake": 745,
      "Ġcake": 746,
      "ossib": 747,
      "Ġpossib": 748,
      "ressing": 749,
      "tle": 750,
      "redded": 751,
      "ade": 752,
      "Ġbottom": 753,
      "Ġbroth": 754,
      "ides": 755,
      "Ġchil": 756,
      "te": 757,
      "Ġby": 758,
      "ĠK": 759,
      "acon": 760,
      "uc": 761,
      "Ġar": 762,
      "ĠSa": 763,
      "Ġsqu": 764,
      "Ġpaper": 765,
      "Ġz": 766,
      "till": 767,
      "very": 768,
      "zz": 769,
      "Ġtem": 770,
      "Ġpasta": 771,
      "Ġdried": 772,
      "Sprinkle": 773,
      "Ġcarro": 774,
      "ĠV": 775,
      "Ġcinnamon": 776,
      "Ġbas": 777,
      "Ġen": 778,
      "Ġhigh": 779,
      "low": 780,
      "ĠCheese": 781,
      "Ġoff": 782,
      "Ġsides": 783,
      "Ġcont": 784,
      "asted": 785,
      "ently": 786,
      "ature": 787,
      "Ġpeeled": 788,
      "gin": 789,
      "ĠPe": 790,
      "Ġbre": 791,
      "nish": 792,
      "Ġlay": 793,
      "ally": 794,
      "ery": 795,
      "ges": 796,
      "Ġsoup": 797,
      "Ġ&": 798,
      "Ġste": 799,
      "ĠRe": 800,
      "Ġwhisk": 801,
      "ort": 802,
      "Ġoz": 803,
      "Ġstock": 804,
      "Ġpossibly": 805,
      "Ġfir": 806,
      "Ġdis": 807,
      "Ġtemper": 808,
      "Ġliquid": 809,
      "ved": 810,
      "avy": 811,
      "Ġmushrooms": 812,
      "Ġeven": 813,
      "Ġremove": 814,
      "esan": 815,
      "armesan": 816,
      "Ġfill": 817,
      "Ġtemperature": 818,
      "own": 819,
      "Ġtime": 820,
      "10": 821,
      "ee": 822,
      "Ġmay": 823,
      "Ġthis": 824,
      "Ġprocess": 825,
      "elery": 826,
      "Ġspoon": 827,
      "act": 828,
      "ĠChicken": 829,
      "Ġvegetable": 830,
      "Ġbake": 831,
      "When": 832,
      "ini": 833,
      "Let": 834,
      "uit": 835,
      "Put": 836,
      "Ġpeppers": 837,
      "Ġfry": 838,
      "Ġgrill": 839,
      "ous": 840,
      "arch": 841,
      "Ġonto": 842,
      "Ġheavy": 843,
      "ips": 844,
      "Ġbacon": 845,
      "rimp": 846,
      "Ġx": 847,
      "Ġdown": 848,
      "ĠRecipe": 849,
      "oun": 850,
      "pe": 851,
      "Transfer": 852,
      "ĠCo": 853,
      "Ġminute": 854,
      "Ġprep": 855,
      "Ġcub": 856,
      "Ġgl": 857,
      "tional": 858,
      "Ġstick": 859,
      "berries": 860,
      "Ġorange": 861,
      "Ġginger": 862,
      "ams": 863,
      "Bring": 864,
      "Ġcelery": 865,
      "Ġrack": 866,
      "Wh": 867,
      "Ġseeds": 868,
      "Ġseasoning": 869,
      "ters": 870,
      "Ġfreshly": 871,
      "ful": 872,
      "Ġextra": 873,
      "If": 874,
      "Season": 875,
      "ong": 876,
      "Ġpork": 877,
      "ĠSt": 878,
      "Ġml": 879,
      "Ġres": 880,
      "na": 881,
      "Ġbring": 882,
      "Ġshredded": 883,
      "Ġsaute": 884,
      "Ġsour": 885,
      "The": 886,
      "Ġvegetables": 887,
      "ould": 888,
      "Ġmustard": 889,
      "Ġice": 890,
      "zen": 891,
      "Ġthat": 892,
      "ined": 893,
      "edges": 894,
      "ches": 895,
      "ze": 896,
      "Ġcoat": 897,
      "Ġdes": 898,
      "ired": 899,
      "Ġcomp": 900,
      "Ġcold": 901,
      "Ġmo": 902,
      "Drain": 903,
      "pose": 904,
      "Ġocc": 905,
      "Ġtor": 906,
      "Ġsprinkle": 907,
      "ushed": 908,
      "ionally": 909,
      "ĠN": 910,
      "Ġslightly": 911,
      "Ġchill": 912,
      "urpose": 913,
      "Ġroom": 914,
      "Ġfood": 915,
      "Ġpour": 916,
      "Ġusing": 917,
      "Ġoccas": 918,
      "ich": 919,
      "oney": 920,
      "Ġri": 921,
      "Ġspray": 922,
      "ist": 923,
      "Ġoccasionally": 924,
      "yr": 925,
      "eep": 926,
      "row": 927,
      "Ġsod": 928,
      "Ġpackage": 929,
      "Ġra": 930,
      "yrup": 931,
      "antro": 932,
      "ĠCho": 933,
      "Ġplate": 934,
      "Ġbrowned": 935,
      "ĠGr": 936,
      "Ġlit": 937,
      "ilantro": 938,
      "Ġbasil": 939,
      "ano": 940,
      "Ġshall": 941,
      "Ġtoss": 942,
      "ean": 943,
      "Ġcomplet": 944,
      "ract": 945,
      "other": 946,
      "Ġthey": 947,
      "13": 948,
      "Ġfoil": 949,
      "To": 950,
      "Ġtw": 951,
      "Ġslice": 952,
      "Ġcen": 953,
      "Ġhand": 954,
      "og": 955,
      "umin": 956,
      "Ġany": 957,
      "Ġdesired": 958,
      "Ġ9": 959,
      "ĠSal": 960,
      "Ġhave": 961,
      "yme": 962,
      "ĠJ": 963,
      "af": 964,
      "Ġbatter": 965,
      "ther": 966,
      "Ġlime": 967,
      "ĠSp": 968,
      "Spread": 969,
      "Top": 970,
      "ĠSauce": 971,
      "Ġsweet": 972,
      "utter": 973,
      "Ġbag": 974,
      "Ġevenly": 975,
      "Ġsoftened": 976,
      "Ġcompletely": 977,
      "Ġextract": 978,
      "avor": 979,
      "ared": 980,
      "Ġsoy": 981,
      "ary": 982,
      "inach": 983,
      "Ġsome": 984,
      "Ġboiling": 985,
      "Ġcrushed": 986,
      "Ġlittle": 987,
      "Ġsoda": 988,
      "75": 989,
      "high": 990,
      "Ġsyrup": 991,
      "Ġanother": 992,
      "Ġcenter": 993,
      "irgin": 994,
      "Ġvery": 995,
      "about": 996,
      "rush": 997,
      "fat": 998,
      "Ġlayer": 999,
      "isp": 1000,
      "Ġfat": 1001,
      "ered": 1002,
      "Ġdressing": 1003,
      "Ġthyme": 1004,
      "purpose": 1005,
      "Ġcarrots": 1006,
      "Ġcrust": 1007,
      "ble": 1008,
      "oy": 1009,
      "Ġskin": 1010,
      "Ġdrained": 1011,
      "els": 1012,
      "range": 1013,
      "stant": 1014,
      "led": 1015,
      "Ġfilling": 1016,
      "Ġshrimp": 1017,
      "ize": 1018,
      "Ġlike": 1019,
      "Ġlight": 1020,
      "Ġcilantro": 1021,
      "Ġthinly": 1022,
      "Ġgrams": 1023,
      "Ġneed": 1024,
      "wh": 1025,
      "Ġfrozen": 1026,
      "astic": 1027,
      "Ġchili": 1028,
      "),": 1029,
      "ase": 1030,
      "25": 1031,
      "pple": 1032,
      "ace": 1033,
      "Ġpaste": 1034,
      "tal": 1035,
      "Ġchips": 1036,
      "Ġcle": 1037,
      "Ġform": 1038,
      "Ġfish": 1039,
      "Ġdone": 1040,
      "ĠCream": 1041,
      "Ġcrumbs": 1042,
      "For": 1043,
      "Beat": 1044,
      "ĠTablespoon": 1045,
      "Ġother": 1046,
      "Ġcoars": 1047,
      "oll": 1048,
      "optional": 1049,
      "aw": 1050,
      "Ġfr": 1051,
      "Ġstri": 1052,
      "Ġbell": 1053,
      "salted": 1054,
      "Ġtortill": 1055,
      "Ġprepared": 1056,
      "Set": 1057,
      "Ġnon": 1058,
      "ĠWh": 1059,
      "eed": 1060,
      "ĠSh": 1061,
      "Ġalmon": 1062,
      "Ġstand": 1063,
      "fter": 1064,
      "vered": 1065,
      "Ġsecon": 1066,
      "oodles": 1067,
      "ets": 1068,
      "Ġrecipe": 1069,
      "berry": 1070,
      "Ġgarnish": 1071,
      "conut": 1072,
      "Salt": 1073,
      "Ġplastic": 1074,
      "Th": 1075,
      "ang": 1076,
      "ump": 1077,
      "Ġbl": 1078,
      "ivid": 1079,
      "Ġhoney": 1080,
      "Ġprocessor": 1081,
      "rizz": 1082,
      "oughly": 1083,
      "oked": 1084,
      "Ġput": 1085,
      "Ch": 1086,
      "Ġhas": 1087,
      "Ġplus": 1088,
      "Ġshould": 1089,
      "Ġmarin": 1090,
      "Ġball": 1091,
      "ased": 1092,
      "ka": 1093,
      "onna": 1094,
      "Ġblended": 1095,
      "icrow": 1096,
      "Ġtow": 1097,
      "Ġyol": 1098,
      "onnaise": 1099,
      "Ġpure": 1100,
      "Ġspread": 1101,
      "Ġbit": 1102,
      "Ġthicken": 1103,
      "ddar": 1104,
      "Ġcrisp": 1105,
      "amb": 1106,
      "raw": 1107,
      "Ġunsalted": 1108,
      "Ġblender": 1109,
      "Ġsalad": 1110,
      "reg": 1111,
      "Ġfirm": 1112,
      "Ġgently": 1113,
      "Ġmixing": 1114,
      "ia": 1115,
      "Ġdo": 1116,
      "15": 1117,
      "Ġsur": 1118,
      "Ġwrap": 1119,
      "Ġwhen": 1120,
      "ting": 1121,
      "ĠParmesan": 1122,
      "ediately": 1123,
      "Ġcol": 1124,
      "ig": 1125,
      "ment": 1126,
      "Ġtwo": 1127,
      "stick": 1128,
      "esame": 1129,
      "Ġnuts": 1130,
      "icrowave": 1131,
      "Ġnoodles": 1132,
      "tt": 1133,
      "ady": 1134,
      "ĠCr": 1135,
      "Cool": 1136,
      "usage": 1137,
      "inue": 1138,
      "Ġmixer": 1139,
      "key": 1140,
      "Ġenough": 1141,
      "Ġspinach": 1142,
      "On": 1143,
      "Ġsteak": 1144,
      "ĠPepper": 1145,
      "urt": 1146,
      "Ġzest": 1147,
      "ive": 1148,
      "Ġcookie": 1149,
      "Ġleast": 1150,
      "nuts": 1151,
      "enne": 1152,
      "urkey": 1153,
      "Ġkn": 1154,
      "Ġcovered": 1155,
      "ices": 1156,
      "regano": 1157,
      "Ġsurf": 1158,
      "Ġscall": 1159,
      "ric": 1160,
      "34": 1161,
      "Spoon": 1162,
      "Ġstrips": 1163,
      "Ġkeep": 1164,
      "Ġlen": 1165,
      "osher": 1166,
      "ipped": 1167,
      "rizzle": 1168,
      "Us": 1169,
      "Ġsurface": 1170,
      "Ġroast": 1171,
      "asser": 1172,
      "while": 1173,
      "aked": 1174,
      "Ġcumin": 1175,
      "oc": 1176,
      "Ġcubes": 1177,
      "Ġpounds": 1178,
      "Ġclean": 1179,
      "wise": 1180,
      "Ġclove": 1181,
      "Ġrest": 1182,
      "ĠSalt": 1183,
      "asserole": 1184,
      "garine": 1185,
      "Ġpinch": 1186,
      "Ġround": 1187,
      "Ġpean": 1188,
      "You": 1189,
      "Ġcrack": 1190,
      "Ġfew": 1191,
      "anan": 1192,
      "eanwhile": 1193,
      "ogurt": 1194,
      "Ġbon": 1195,
      "Ġglass": 1196,
      "Ġaround": 1197,
      "ĠButter": 1198,
      "Ġcontain": 1199,
      "Ġfree": 1200,
      "ont": 1201,
      "Ġshell": 1202,
      "Ġnut": 1203,
      "Ġapples": 1204,
      "Using": 1205,
      "izz": 1206,
      "Ġimm": 1207,
      "Meanwhile": 1208,
      "Ġcoconut": 1209,
      "Ġpine": 1210,
      "Ġins": 1211,
      "Ġimmediately": 1212,
      "Ġoregano": 1213,
      "ellow": 1214,
      "Ġrefrigerate": 1215,
      "ĠSalad": 1216,
      "talian": 1217,
      "arts": 1218,
      "ots": 1219,
      "Ġboth": 1220,
      "Ġbun": 1221,
      "Ġpk": 1222,
      "Ġpastry": 1223,
      "16": 1224,
      "Ġbeaten": 1225,
      "Ġmargarine": 1226,
      "Ġready": 1227,
      "asts": 1228,
      "Ġgran": 1229,
      "Ġend": 1230,
      "ĠItalian": 1231,
      "18": 1232,
      "ites": 1233,
      "Turn": 1234,
      "ife": 1235,
      "Ġu": 1236,
      "ator": 1237,
      "erved": 1238,
      "sa": 1239,
      "Ġ375": 1240,
      "ayenne": 1241,
      "Ġapple": 1242,
      "Ġback": 1243,
      "Ġcomb": 1244,
      "'t": 1245,
      "ĠBe": 1246,
      "Ġop": 1247,
      "Ġfork": 1248,
      "rika": 1249,
      "ccol": 1250,
      "Ġmayonnaise": 1251,
      "areful": 1252,
      "Ġknife": 1253,
      "att": 1254,
      "Ġbay": 1255,
      "par": 1256,
      "tuce": 1257,
      "meg": 1258,
      "Ref": 1259,
      "ling": 1260,
      "abb": 1261,
      "ĠGar": 1262,
      "Ġflakes": 1263,
      "Red": 1264,
      "ccoli": 1265,
      "kin": 1266,
      "Ġ7": 1267,
      "ivided": 1268,
      "ned": 1269,
      "rown": 1270,
      "Ġaddit": 1271,
      "Ġtoasted": 1272,
      "ĠOn": 1273,
      "rigerate": 1274,
      "Ġinches": 1275,
      "apple": 1276,
      "Ġspeed": 1277,
      "ec": 1278,
      "sol": 1279,
      "Whisk": 1280,
      "Ġsausage": 1281,
      "Ġgra": 1282,
      "Ġsesame": 1283,
      "Ġpotato": 1284,
      "Ġyogurt": 1285,
      "ually": 1286,
      "ind": 1287,
      "Ġcur": 1288,
      "Ġ400": 1289,
      "Ġseconds": 1290,
      "Ġpkg": 1291,
      "Ġfrying": 1292,
      "Reduce": 1293,
      "ark": 1294,
      "less": 1295,
      "ula": 1296,
      "xt": 1297,
      "Ġrefrigerator": 1298,
      "Refrigerate": 1299,
      "gth": 1300,
      "Ġedges": 1301,
      "Ġcro": 1302,
      "Ġbo": 1303,
      "int": 1304,
      "Ġ25": 1305,
      "Ġremo": 1306,
      "starch": 1307,
      "ĠTo": 1308,
      "Ġcontainer": 1309,
      "ĠFor": 1310,
      "ucch": 1311,
      "Ġper": 1312,
      "ates": 1313,
      "ĠPot": 1314,
      "card": 1315,
      "Ġpiece": 1316,
      "ivide": 1317,
      "Ġwhites": 1318,
      "Ġfruit": 1319,
      "Ġcoarsely": 1320,
      "Ġsepar": 1321,
      "fe": 1322,
      "Ġwhile": 1323,
      "Ġtopping": 1324,
      "joy": 1325,
      "Ġcrumb": 1326,
      "ucchini": 1327,
      "Ġday": 1328,
      "Ġnutmeg": 1329,
      "ull": 1330,
      "ugar": 1331,
      "ĠChocolate": 1332,
      "ddle": 1333,
      "Ġleaf": 1334,
      "Ġlength": 1335,
      "uch": 1336,
      "lla": 1337,
      "This": 1338,
      "arb": 1339,
      "abbage": 1340,
      "Ġ45": 1341,
      "Ġyellow": 1342,
      "ashed": 1343,
      "Ġag": 1344,
      "ĠTom": 1345,
      "gs": 1346,
      "ounce": 1347,
      "ĠWith": 1348,
      "Ġpress": 1349,
      "Ġneeded": 1350,
      "Ġlettuce": 1351,
      "oroughly": 1352,
      "Ġflavor": 1353,
      "Ġturning": 1354,
      "Ġpec": 1355,
      "apen": 1356,
      "ulated": 1357,
      "udd": 1358,
      "Ġcayenne": 1359,
      "ĠGarlic": 1360,
      "Ġstraw": 1361,
      "sem": 1362,
      "arella": 1363,
      "med": 1364,
      "Ġ14": 1365,
      "way": 1366,
      "Ġyolks": 1367,
      "Ġgreased": 1368,
      "Ġpuree": 1369,
      "Ġturkey": 1370,
      "Ġtoo": 1371,
      "Ġcornstarch": 1372,
      "umber": 1373,
      "Ġpaprika": 1374,
      "Ġreduce": 1375,
      "Ġcombined": 1376,
      "Ġ13": 1377,
      "ord": 1378,
      "Ġfine": 1379,
      "zzarella": 1380,
      "udding": 1381,
      "Ġchi": 1382,
      "Ġslow": 1383,
      "ape": 1384,
      "Ġcher": 1385,
      "Ġalmonds": 1386,
      "gr": 1387,
      "ĠEgg": 1388,
      "ized": 1389,
      "ubb": 1390,
      "izza": 1391,
      "Ġpo": 1392,
      "..": 1393,
      "Ġbreasts": 1394,
      "Ġsize": 1395,
      "Ġsheets": 1396,
      "alapen": 1397,
      "Ġav": 1398,
      "Ġwal": 1399,
      "Ġallow": 1400,
      "Ġthoroughly": 1401,
      "stantly": 1402,
      "als": 1403,
      "ĠTablespoons": 1404,
      "Ġquart": 1405,
      "urger": 1406,
      "eless": 1407,
      "Ġdivided": 1408,
      "Ġconstantly": 1409,
      "Ġafter": 1410,
      "elt": 1411,
      "Ġonce": 1412,
      "Ġbet": 1413,
      "Ġmixed": 1414,
      "Ġtransfer": 1415,
      "Ġpeas": 1416,
      "pl": 1417,
      "amel": 1418,
      "Once": 1419,
      "ĠIn": 1420,
      "ucumber": 1421,
      "Ġmicrowave": 1422,
      "Ġbanan": 1423,
      "Ġdi": 1424,
      "coa": 1425,
      "Ġwa": 1426,
      "Ġcasserole": 1427,
      "onger": 1428,
      "Ġchun": 1429,
      "milk": 1430,
      "Ġpeanut": 1431,
      "cr": 1432,
      "ren": 1433,
      "Ġdissol": 1434,
      "ĠFl": 1435,
      "Roll": 1436,
      "Ġfirst": 1437,
      "ai": 1438,
      "lets": 1439,
      "Ġpineapple": 1440,
      "so": 1441,
      "Ġmuff": 1442,
      "Ġlonger": 1443,
      "Ġlbs": 1444,
      "Ġcookies": 1445,
      "ings": 1446,
      "lend": 1447,
      "Ġap": 1448,
      "Make": 1449,
      "archment": 1450,
      "umpkin": 1451,
      "RA": 1452,
      "Ġwork": 1453,
      "ola": 1454,
      "Ġstem": 1455,
      "Then": 1456,
      "Ġshort": 1457,
      "Ġ0": 1458,
      "of": 1459,
      "Use": 1460,
      "Ġfold": 1461,
      "Ġspri": 1462,
      "ĠAnd": 1463,
      "Ġparchment": 1464,
      "Ġchilled": 1465,
      "Toss": 1466,
      "night": 1467,
      "rep": 1468,
      "Ġpacked": 1469,
      "Ġam": 1470,
      "ail": 1471,
      "Ġzucchini": 1472,
      "Ġmarinade": 1473,
      "Ġbroccoli": 1474,
      "Ġacc": 1475,
      "ocad": 1476,
      "Ġcheddar": 1477,
      "Ġpreheat": 1478,
      "Ġbat": 1479,
      "cor": 1480,
      "Ġchop": 1481,
      "Ġmint": 1482,
      "Ġagain": 1483,
      "Ar": 1484,
      "Gar": 1485,
      "Ġolives": 1486,
      "Ġbroil": 1487,
      "Fold": 1488,
      "Ġrais": 1489,
      "Ġcomes": 1490,
      "Ġwedges": 1491,
      "Ġcans": 1492,
      "lice": 1493,
      "Ġheated": 1494,
      "Ġdeep": 1495,
      "overed": 1496,
      "Ġlowfat": 1497,
      "Ġsure": 1498,
      "Ġcabbage": 1499,
      "Ġbreast": 1500,
      "hire": 1501,
      "Gr": 1502,
      "Ġgranulated": 1503,
      "Ġreserved": 1504,
      "pt": 1505,
      "Ġpowdered": 1506,
      "Ġcontinue": 1507,
      "Ġovernight": 1508,
      "Ġcocoa": 1509,
      "oured": 1510,
      "Ġsquash": 1511,
      "lo": 1512,
      "Ġtortillas": 1513,
      "Ġlong": 1514,
      "Rep": 1515,
      "covered": 1516,
      "Arrange": 1517,
      "Ġlid": 1518,
      "ĠTh": 1519,
      "Ġmelt": 1520,
      "ats": 1521,
      "uck": 1522,
      "Ġham": 1523,
      "Ġparmesan": 1524,
      "uced": 1525,
      "Ġwe": 1526,
      "ĠFresh": 1527,
      "HI": 1528,
      "ĠVe": 1529,
      "ER": 1530,
      "tershire": 1531,
      "cake": 1532,
      "Ġplatter": 1533,
      "Ġboneless": 1534,
      "arefully": 1535,
      "Ġwire": 1536,
      "ift": 1537,
      "Ġvirgin": 1538,
      "ffee": 1539,
      "Ġcarrot": 1540,
      "ount": 1541,
      "orces": 1542,
      "lect": 1543,
      "Ġbrush": 1544,
      "Ġpit": 1545,
      "ĠSugar": 1546,
      "east": 1547,
      "20": 1548,
      "Ġwhipped": 1549,
      "Ġunder": 1550,
      "Ġwalnuts": 1551,
      "orcestershire": 1552,
      "Ġjalapen": 1553,
      "sweet": 1554,
      "Ġpecans": 1555,
      "Ġad": 1556,
      "Ġused": 1557,
      "Simmer": 1558,
      "Repeat": 1559,
      "ction": 1560,
      "Ġadding": 1561,
      "Ġseeded": 1562,
      "Ġscallions": 1563,
      "mer": 1564,
      "Ġthaw": 1565,
      "Garnish": 1566,
      "Ġmod": 1567,
      "orated": 1568,
      "Sa": 1569,
      "Ġdash": 1570,
      "atin": 1571,
      "Ġlengthwise": 1572,
      "dually": 1573,
      "ĠRed": 1574,
      "emon": 1575,
      "Ġno": 1576,
      "Melt": 1577,
      "rimmed": 1578,
      "Ġjar": 1579,
      "Ġexcess": 1580,
      "Ġremoved": 1581,
      "ĠCook": 1582,
      "ages": 1583,
      "Ġloaf": 1584,
      "virgin": 1585,
      "Ġdark": 1586,
      "Ġfil": 1587,
      "Ġcucumber": 1588,
      "Ġgo": 1589,
      "Ġflat": 1590,
      "Ġcanned": 1591,
      "Ġhalved": 1592,
      "Ġmoder": 1593,
      "Ġevery": 1594,
      "rop": 1595,
      "Ġthru": 1596,
      "Ġbubb": 1597,
      "ĠRo": 1598,
      "agus": 1599,
      "spar": 1600,
      "sparagus": 1601,
      "Ġnonstick": 1602,
      "imes": 1603,
      "ollow": 1604,
      "fry": 1605,
      "Ġ$": 1606,
      "Ġcre": 1607,
      "Ġraisins": 1608,
      "Ġ02": 1609,
      "Divide": 1610,
      "Ġher": 1611,
      "Ġyeast": 1612,
      "Ġballs": 1613,
      "ĠGre": 1614,
      "ening": 1615,
      "Ġshallow": 1616,
      "Ġcolor": 1617,
      "Brush": 1618,
      "ĠOnion": 1619,
      "Ġspat": 1620,
      "ens": 1621,
      "Ġthickened": 1622,
      "rape": 1623,
      "Ġadditional": 1624,
      "Ret": 1625,
      "ose": 1626,
      "mall": 1627,
      "semary": 1628,
      "arp": 1629,
      "Slice": 1630,
      "Ġ40": 1631,
      "FT": 1632,
      "Return": 1633,
      "meal": 1634,
      "Ġrosemary": 1635,
      "lectric": 1636,
      "ĠY": 1637,
      "Ġdiscard": 1638,
      "Ġspatula": 1639,
      "ĠOil": 1640,
      "Sh": 1641,
      "Ġuncovered": 1642,
      "corn": 1643,
      "hett": 1644,
      "Ġelectric": 1645,
      "Ġcor": 1646,
      "Ġpans": 1647,
      "Ġwheat": 1648,
      "RAFT": 1649,
      "Ġfloured": 1650,
      "Ġreduced": 1651,
      "ĠSoup": 1652,
      "Ġstill": 1653,
      "ween": 1654,
      "ĠKRAFT": 1655,
      "Ġsalmon": 1656,
      "inse": 1657,
      "isc": 1658,
      "iander": 1659,
      "ording": 1660,
      "Ġthawed": 1661,
      "yle": 1662,
      "Ġmozzarella": 1663,
      "cho": 1664,
      "Ġchunks": 1665,
      "Saute": 1666,
      "Ġshallots": 1667,
      "ott": 1668,
      "cessary": 1669,
      "Ġbetween": 1670,
      "Ġsteam": 1671,
      "ĠLarge": 1672,
      "ĠWorcestershire": 1673,
      "rand": 1674,
      "Ġtortilla": 1675,
      "ĠBread": 1676,
      "Ġjuices": 1677,
      "Ġnecessary": 1678,
      "Ġdou": 1679,
      "EL": 1680,
      "While": 1681,
      "ĠLemon": 1682,
      "Ġcooled": 1683,
      "eel": 1684,
      "Ġmuffin": 1685,
      "Ġaccording": 1686,
      "With": 1687,
      "aze": 1688,
      "asp": 1689,
      "ĠChopped": 1690,
      "Ġbuttermilk": 1691,
      "oni": 1692,
      "Ġpart": 1693,
      "rox": 1694,
      "cooked": 1695,
      "Ġchives": 1696,
      "Ġeas": 1697,
      "isten": 1698,
      "Ġbec": 1699,
      "cept": 1700,
      "plant": 1701,
      "Ġsalsa": 1702,
      "oke": 1703,
      "rease": 1704,
      "Ġsprigs": 1705,
      "Ġpudding": 1706,
      "Ġsit": 1707,
      "Fill": 1708,
      "It": 1709,
      "herry": 1710,
      "ost": 1711,
      "Ġblue": 1712,
      "ium": 1713,
      "just": 1714,
      "ops": 1715,
      "Ġavocad": 1716,
      "Ġroasted": 1717,
      "dr": 1718,
      "Ġget": 1719,
      "ball": 1720,
      "ĠCake": 1721,
      "Ġtowel": 1722,
      "Blend": 1723,
      "ere": 1724,
      "Ġdon": 1725,
      "edge": 1726,
      "aghett": 1727,
      "Ġstrawberries": 1728,
      "Ġhead": 1729,
      "live": 1730,
      "Ġcoriander": 1731,
      "nel": 1732,
      "Ġwood": 1733,
      "ĠDi": 1734,
      "Ġrolls": 1735,
      "Ġrun": 1736,
      "aghetti": 1737,
      "Drizzle": 1738,
      "Ġsalted": 1739,
      "Ġbr": 1740,
      "Ġprefer": 1741,
      "Ġseparate": 1742,
      "ĠOr": 1743,
      "Ġgood": 1744,
      "Ġpizza": 1745,
      "ĠBlack": 1746,
      "Ġhalves": 1747,
      "dge": 1748,
      "Ġalso": 1749,
      "Ġsand": 1750,
      "Ġkosher": 1751,
      "Ġ\"": 1752,
      "Ġpumpkin": 1753,
      "lower": 1754,
      "for": 1755,
      "Ġcons": 1756,
      "Ġinser": 1757,
      "Ġtowels": 1758,
      "ĠDressing": 1759,
      "Ġquick": 1760,
      "iscuit": 1761,
      "Ġhard": 1762,
      "ĠPie": 1763,
      "ation": 1764,
      "repare": 1765,
      "nut": 1766,
      "insed": 1767,
      "Ġribs": 1768,
      "Ġgel": 1769,
      "Ġme": 1770,
      "ĠRice": 1771,
      "Ġcaramel": 1772,
      "Ġsame": 1773,
      "una": 1774,
      "Ġpick": 1775,
      "Ġchops": 1776,
      "Ġcrumbled": 1777,
      "Ġwant": 1778,
      "tern": 1779,
      "Ġport": 1780,
      "ider": 1781,
      "30": 1782,
      "fu": 1783,
      "Ġfollow": 1784,
      "ener": 1785,
      "ĠTomato": 1786,
      "Ġdrizzle": 1787,
      "umbs": 1788,
      "Ġstuff": 1789,
      "sor": 1790,
      "side": 1791,
      "Ġdirect": 1792,
      "imp": 1793,
      "cy": 1794,
      "amic": 1795,
      "Ġalong": 1796,
      "Ġbeg": 1797,
      "jon": 1798,
      "Ġasparagus": 1799,
      "tich": 1800,
      "Un": 1801,
      "iddle": 1802,
      "Ġexcept": 1803,
      "Ġtart": 1804,
      "Ġcap": 1805,
      "hy": 1806,
      "Ġ18": 1807,
      "getable": 1808,
      "Ġonly": 1809,
      "ier": 1810,
      "fl": 1811,
      "ĠCar": 1812,
      "Ġskinless": 1813,
      "Ġbean": 1814,
      "Ġits": 1815,
      "Ġsub": 1816,
      "stit": 1817,
      "au": 1818,
      "Ġmade": 1819,
      "arin": 1820,
      "az": 1821,
      "flower": 1822,
      "Ġket": 1823,
      "Ġpatt": 1824,
      "Ġsea": 1825,
      "Ġhands": 1826,
      "Ġrub": 1827,
      "ares": 1828,
      "Ġcurry": 1829,
      "Ġshortening": 1830,
      "Ġfillets": 1831,
      "Ġfre": 1832,
      "ino": 1833,
      "Ġpul": 1834,
      "Ġdill": 1835,
      "Ġjalapeno": 1836,
      "add": 1837,
      "ex": 1838,
      "Ġsquee": 1839,
      "nead": 1840,
      "ĠBeef": 1841,
      "Ġsandw": 1842,
      "arbec": 1843,
      "iff": 1844,
      "Ġbroiler": 1845,
      "Ġplates": 1846,
      "Ġgreens": 1847,
      "Ġcoffee": 1848,
      "Ġcran": 1849,
      "Ġamount": 1850,
      "unch": 1851,
      "Ġstal": 1852,
      "Lay": 1853,
      "aby": 1854,
      "Prepare": 1855,
      "Ġair": 1856,
      "Ġret": 1857,
      "eta": 1858,
      "ale": 1859,
      "Chill": 1860,
      "Ġfluff": 1861,
      "quently": 1862,
      "Ġrinsed": 1863,
      "liced": 1864,
      "Ġstart": 1865,
      "ously": 1866,
      "RE": 1867,
      "ote": 1868,
      "coop": 1869,
      "Ġmiddle": 1870,
      "Ġfrequently": 1871,
      "most": 1872,
      "Ġspring": 1873,
      "Ġbunch": 1874,
      "Ġ35": 1875,
      "Ġlamb": 1876,
      "Ġseal": 1877,
      "Ġplain": 1878,
      "Ġtake": 1879,
      "iel": 1880,
      "ored": 1881,
      "All": 1882,
      "pick": 1883,
      "icy": 1884,
      "veral": 1885,
      "vap": 1886,
      "sweetened": 1887,
      "Ġbowls": 1888,
      "alsamic": 1889,
      "Ġalmond": 1890,
      "illed": 1891,
      "ĠMix": 1892,
      "Ġspices": 1893,
      "Ġgelatin": 1894,
      "ĠShredded": 1895,
      "Ġeggplant": 1896,
      "Ġcreamy": 1897,
      "Qu": 1898,
      "ipping": 1899,
      "aches": 1900,
      "ons": 1901,
      "aple": 1902,
      "Ġwooden": 1903,
      "09": 1904,
      "Ġsticks": 1905,
      "LA": 1906,
      "Ġtooth": 1907,
      "Line": 1908,
      "cakes": 1909,
      "Ġslowly": 1910,
      "Fresh": 1911,
      "fection": 1912,
      "Ġtightly": 1913,
      "chup": 1914,
      "roxim": 1915,
      "Ġshape": 1916,
      "23": 1917,
      "Ġcubed": 1918,
      "ĠGreen": 1919,
      "ĠOlive": 1920,
      "ĠCorn": 1921,
      "ennel": 1922,
      "Ġevap": 1923,
      "Ġbite": 1924,
      "ĠMin": 1925,
      "Ġinserted": 1926,
      "Press": 1927,
      "ĠPast": 1928,
      "Ġtin": 1929,
      "Peel": 1930,
      "rench": 1931,
      "Ġfit": 1932,
      "Ġcutting": 1933,
      "Ġburn": 1934,
      "En": 1935,
      "Ġmuch": 1936,
      "Ġbreadcr": 1937,
      "Ġstrain": 1938,
      "vy": 1939,
      "Ġalmost": 1940,
      "Ġdirections": 1941,
      "ĠDijon": 1942,
      "istency": 1943,
      "Ġseveral": 1944,
      "Ġcoated": 1945,
      "Ġinstant": 1946,
      "iss": 1947,
      "Ġtoothpick": 1948,
      "zer": 1949,
      "Ġ325": 1950,
      "Ġcrackers": 1951,
      "icott": 1952,
      "After": 1953,
      "Ġthan": 1954,
      "Grill": 1955,
      "arsh": 1956,
      "Ġtrimmed": 1957,
      "Ġtops": 1958,
      "oz": 1959,
      "Ġlee": 1960,
      "Ġbox": 1961,
      "Boil": 1962,
      "Ġ16": 1963,
      "ĠSweet": 1964,
      "aving": 1965,
      "Ġconsistency": 1966,
      "roximately": 1967,
      "ys": 1968,
      "Ġcand": 1969,
      "ug": 1970,
      "qt": 1971,
      "Ġstems": 1972,
      "arbecue": 1973,
      "Ġdissolved": 1974,
      "Ġedge": 1975,
      "ild": 1976,
      "Ġind": 1977,
      "Ġequ": 1978,
      "ĠWhite": 1979,
      "sting": 1980,
      "Ġreturn": 1981,
      "ĠCheddar": 1982,
      "Ġrasp": 1983,
      "ness": 1984,
      "alf": 1985,
      "Ġbatches": 1986,
      "Ġbiscuit": 1987,
      "Ġripe": 1988,
      "Ġpin": 1989,
      "ating": 1990,
      "IN": 1991,
      "Ġsquares": 1992,
      "Ġfra": 1993,
      "mallow": 1994,
      "cl": 1995,
      "ran": 1996,
      "Enjoy": 1997,
      "Ġchile": 1998,
      "ĠPork": 1999,
      "arshmallow": 2000,
      "Ġber": 2001,
      "Ġinside": 2002,
      "Ġcherry": 2003,
      "ght": 2004,
      "Kosher": 2005,
      "ican": 2006,
      "Ġcanola": 2007,
      "ĠWater": 2008,
      "Ġpackages": 2009,
      "Cont": 2010,
      "Ġshells": 2011,
      "aks": 2012,
      "Ġroasting": 2013,
      "Ġpreheated": 2014,
      "Ġfluffy": 2015,
      "ily": 2016,
      "uss": 2017,
      "irc": 2018,
      "Ġchiles": 2019,
      "Ġsharp": 2020,
      "Ġwax": 2021,
      "Ġtimes": 2022,
      "Ġsem": 2023,
      "ably": 2024,
      "Ġtoast": 2025,
      "ten": 2026,
      "acar": 2027,
      "corp": 2028,
      "balls": 2029,
      "fectioners": 2030,
      "Ġbreadcrumbs": 2031,
      "icotta": 2032,
      "uring": 2033,
      "Ġcrab": 2034,
      "Ġway": 2035,
      "Ġunsweetened": 2036,
      "Continue": 2037,
      "Ġoats": 2038,
      "ĠSm": 2039,
      "lit": 2040,
      "Allow": 2041,
      "Ġdays": 2042,
      "head": 2043,
      "Ġpink": 2044,
      "use": 2045,
      "ular": 2046,
      "pot": 2047,
      "Ġavocado": 2048,
      "Ġcoarse": 2049,
      "Ġcirc": 2050,
      "Ġapart": 2051,
      "ĠEas": 2052,
      "Ġdice": 2053,
      "radually": 2054,
      "pro": 2055,
      "Ġmaking": 2056,
      "Ġbananas": 2057,
      "Ġcider": 2058,
      "Ġincorp": 2059,
      "Ġsteaks": 2060,
      "Ġcarefully": 2061,
      "Ġskew": 2062,
      "Ġaway": 2063,
      "Ġspaghetti": 2064,
      "Ġleave": 2065,
      "elly": 2066,
      "Ġtofu": 2067,
      "wdr": 2068,
      "ĠAl": 2069,
      "Ġpat": 2070,
      "Ġenjoy": 2071,
      "Ġsubstit": 2072,
      "Ġmed": 2073,
      "Ġartich": 2074,
      "Ġspice": 2075,
      "Ġsw": 2076,
      "Gradually": 2077,
      "inely": 2078,
      "Ġfreezer": 2079,
      "Ġsn": 2080,
      "Ġdouble": 2081,
      "Ġfennel": 2082,
      "Brown": 2083,
      "bed": 2084,
      "Ġabsor": 2085,
      "Ġpatties": 2086,
      "Sto": 2087,
      "Fry": 2088,
      "thing": 2089,
      "Ġoften": 2090,
      "Strain": 2091,
      "ĠPasta": 2092,
      "Lightly": 2093,
      "Ġfri": 2094,
      "ĠApple": 2095,
      "Ġherbs": 2096,
      "Ġtheir": 2097,
      "Ġsquare": 2098,
      "ĠPotato": 2099,
      "ko": 2100,
      "Take": 2101,
      "Ġpwdr": 2102,
      "Ġquartered": 2103,
      "free": 2104,
      "ruit": 2105,
      "ham": 2106,
      "Ġleaving": 2107,
      "ĠBrown": 2108,
      "iano": 2109,
      "avorite": 2110,
      "gon": 2111,
      "Fl": 2112,
      "amp": 2113,
      "ity": 2114,
      "Ġmashed": 2115,
      "Ġapproximately": 2116,
      "Ġ,": 2117,
      "Ġglaze": 2118,
      "ango": 2119,
      "Ġboard": 2120,
      "Ġketchup": 2121,
      "Ġyolk": 2122,
      "Do": 2123,
      "Ġloos": 2124,
      "Ġcond": 2125,
      "tte": 2126,
      "Ġbanana": 2127,
      "Gently": 2128,
      "Ġtray": 2129,
      "ari": 2130,
      "Ġhold": 2131,
      "quart": 2132,
      "Ġwhipping": 2133,
      "Ġgener": 2134,
      "cent": 2135,
      "Ġstiff": 2136,
      "ents": 2137,
      "ĠMilk": 2138,
      "ĠChil": 2139,
      "ĠZ": 2140,
      "rs": 2141,
      "odium": 2142,
      "Ġseasonings": 2143,
      "Ġconfectioners": 2144,
      "Ġscrap": 2145,
      "ĠFrench": 2146,
      "Ġlast": 2147,
      "Ġsage": 2148,
      "uffed": 2149,
      "Ġsecond": 2150,
      "Ġberries": 2151,
      "Ġstore": 2152,
      "Ġweight": 2153,
      "Ġlayers": 2154,
      "Ġmoderate": 2155,
      "--": 2156,
      "Ġrise": 2157,
      "Ġbaby": 2158,
      "grette": 2159,
      "ĠGround": 2160,
      "ci": 2161,
      "ird": 2162,
      "Ġtuna": 2163,
      "inai": 2164,
      "ĠCookies": 2165,
      "OO": 2166,
      "inaigrette": 2167,
      "Ġcross": 2168,
      "Ġinst": 2169,
      "Ġahead": 2170,
      "Ġbeen": 2171,
      "Chop": 2172,
      "Ġvegg": 2173,
      "Ġsuch": 2174,
      "ĠQu": 2175,
      "acaroni": 2176,
      "ĠMushroom": 2177,
      "ĠEasy": 2178,
      "utch": 2179,
      "erves": 2180,
      "ĠBacon": 2181,
      "cook": 2182,
      "Dis": 2183,
      "Ġevaporated": 2184,
      "Sc": 2185,
      "anch": 2186,
      "100": 2187,
      "Ġuncooked": 2188,
      "proof": 2189,
      "ĠBro": 2190,
      "Ġdip": 2191,
      "Ġwithout": 2192,
      "ert": 2193,
      "Ġends": 2194,
      "Ġfreeze": 2195,
      "otted": 2196,
      "Ġrolling": 2197,
      "ĠMinced": 2198,
      "Ġmarshmallow": 2199,
      "Ġfull": 2200,
      "ensed": 2201,
      "Keep": 2202,
      "Ġoptional": 2203,
      "99": 2204,
      "Ġmaple": 2205,
      "Ġfour": 2206,
      "nding": 2207,
      "Ġmoist": 2208,
      "ĠPotatoes": 2209,
      "Ġ425": 2210,
      "Ġgrease": 2211,
      "auli": 2212,
      "Ġfridge": 2213,
      "Ġchilies": 2214,
      "Ġqt": 2215,
      "aco": 2216,
      "uice": 2217,
      "Ġcornmeal": 2218,
      "Freshly": 2219,
      "Ġwhich": 2220,
      "Ġbrand": 2221,
      "Ġ24": 2222,
      "Ġbeating": 2223,
      "auliflower": 2224,
      "ea": 2225,
      "Ġbou": 2226,
      "ĠCan": 2227,
      "Ġslotted": 2228,
      "Ġservings": 2229,
      "Ġquar": 2230,
      "see": 2231,
      "Ġcooker": 2232,
      "owder": 2233,
      "Store": 2234,
      "Ġarrange": 2235,
      "ĠBl": 2236,
      "Ġprepare": 2237,
      "ĠVegetable": 2238,
      "bo": 2239,
      "Ġtri": 2240,
      "Ġdri": 2241,
      "Ġbalsamic": 2242,
      "Ġbits": 2243,
      "AK": 2244,
      "ma": 2245,
      "Ġcas": 2246,
      "avored": 2247,
      "ĠGrated": 2248,
      "Ġrum": 2249,
      "Ġmas": 2250,
      "esto": 2251,
      "itc": 2252,
      "Ġpeaks": 2253,
      "Ġknead": 2254,
      "Ġsherry": 2255,
      "Ġpeppercorn": 2256,
      "ĠRoasted": 2257,
      "Ġmeas": 2258,
      "icing": 2259,
      "Ġbegins": 2260,
      "Ġreg": 2261,
      "Makes": 2262,
      "Ġthree": 2263,
      "ĠBas": 2264,
      "itchen": 2265,
      "ied": 2266,
      "Ro": 2267,
      "Ġricotta": 2268,
      "Re": 2269,
      "vel": 2270,
      "ving": 2271,
      "sh": 2272,
      "Ġfrosting": 2273,
      "Ġquickly": 2274,
      "Ġstuffing": 2275,
      "200": 2276,
      "Ġnext": 2277,
      "Ġdust": 2278,
      "ctang": 2279,
      "Spray": 2280,
      "Wrap": 2281,
      "Ġbreak": 2282,
      "loin": 2283,
      "Ġrefrigerated": 2284,
      "Ġcranberries": 2285,
      "spice": 2286,
      "Ġcherries": 2287,
      "Ġwhisking": 2288,
      "Ġadjust": 2289,
      "OT": 2290,
      "Ġcondensed": 2291,
      "Ġrectang": 2292,
      "Ġgraham": 2293,
      "ney": 2294,
      "Ġman": 2295,
      "Ġblueberries": 2296,
      "ĠMay": 2297,
      "ingle": 2298,
      "Ġ.": 2299,
      "Ġlined": 2300,
      "ĠGrilled": 2301,
      "Ġeverything": 2302,
      "Ġgrap": 2303,
      "ĠMo": 2304,
      "ors": 2305,
      "Ġamon": 2306,
      "Ġapric": 2307,
      "Ġscoop": 2308,
      "can": 2309,
      "uct": 2310,
      "tered": 2311,
      "Ġamong": 2312,
      "tight": 2313,
      "Ġmash": 2314,
      "Ġho": 2315,
      "Ġlook": 2316,
      "Ġsmoked": 2317,
      "Sift": 2318,
      "Ġbri": 2319,
      "Ġmy": 2320,
      "Ġcrock": 2321,
      "Ġmold": 2322,
      "Ġsubstitute": 2323,
      "Ġmet": 2324,
      "Ġsprink": 2325,
      "ached": 2326,
      "Ġmon": 2327,
      "ĠSo": 2328,
      "Ġrep": 2329,
      "urgers": 2330,
      "ah": 2331,
      "gl": 2332,
      "anges": 2333,
      "Ġdirected": 2334,
      "der": 2335,
      "ieve": 2336,
      "Ġcracker": 2337,
      "asses": 2338,
      "ingers": 2339,
      "ĠFlour": 2340,
      "vent": 2341,
      "rained": 2342,
      "ĠShrimp": 2343,
      "Ġbaked": 2344,
      "Ġicing": 2345,
      "Dip": 2346,
      "ĠPan": 2347,
      "Ġshake": 2348,
      "Ġshallot": 2349,
      "uminum": 2350,
      "ĠSliced": 2351,
      "Ġstalks": 2352,
      "ĠTbs": 2353,
      "Ġpeppercorns": 2354,
      "Ġwra": 2355,
      "fresh": 2356,
      "Ġfollows": 2357,
      "ragon": 2358,
      "ny": 2359,
      "Ġfavorite": 2360,
      "not": 2361,
      "Ġcrosswise": 2362,
      "elic": 2363,
      "AR": 2364,
      "Ġplum": 2365,
      "Pinch": 2366,
      "ud": 2367,
      "routs": 2368,
      "ĠBre": 2369,
      "Ġ50": 2370,
      "Ġbubbly": 2371,
      "bl": 2372,
      "Ġbul": 2373,
      "Ġrounds": 2374,
      "Ġgrnd": 2375,
      "Ġdepe": 2376,
      "Ġbest": 2377,
      "ON": 2378,
      "Ġroughly": 2379,
      "ĠChili": 2380,
      "60": 2381,
      "Ġsingle": 2382,
      "size": 2383,
      "Ġmeatballs": 2384,
      "arragon": 2385,
      "Ġgrain": 2386,
      "Ġwok": 2387,
      "Ġbegin": 2388,
      "ual": 2389,
      "thick": 2390,
      "Drop": 2391,
      "Ġreserve": 2392,
      "24": 2393,
      "Ġcored": 2394,
      "Ġveggies": 2395,
      "Ġjam": 2396,
      "Ġrinse": 2397,
      "com": 2398,
      "rm": 2399,
      "Ġairtight": 2400,
      "aker": 2401,
      "bread": 2402,
      "half": 2403,
      "Ġthere": 2404,
      "vers": 2405,
      "Ġpitted": 2406,
      "ĠSte": 2407,
      "ĠSoy": 2408,
      "Ġsimmering": 2409,
      "ower": 2410,
      "ĠMeat": 2411,
      "atch": 2412,
      "olasses": 2413,
      "Ġhrs": 2414,
      "ĠDutch": 2415,
      "Ġaluminum": 2416,
      "Ġsandwich": 2417,
      "Grease": 2418,
      "ĠBaked": 2419,
      "ĠMex": 2420,
      "ereal": 2421,
      "Ġsoften": 2422,
      "Ġ450": 2423,
      "Ġopen": 2424,
      "Ġfo": 2425,
      "ĠTomatoes": 2426,
      "ĠWhip": 2427,
      "eur": 2428,
      "xtra": 2429,
      "ilad": 2430,
      "cs": 2431,
      "ett": 2432,
      "Ġcrispy": 2433,
      "ear": 2434,
      "ious": 2435,
      "ĠHoney": 2436,
      "Ġjelly": 2437,
      "ĠThe": 2438,
      "ĠSpinach": 2439,
      "Ġwet": 2440,
      "Ġchoice": 2441,
      "Ġfirmly": 2442,
      "ished": 2443,
      "ĠStep": 2444,
      "ata": 2445,
      "Ġraw": 2446,
      "rit": 2447,
      "ifted": 2448,
      "Ġdoes": 2449,
      "ning": 2450,
      "ĠPean": 2451,
      "Microwave": 2452,
      "Ġmost": 2453,
      "Ġmini": 2454,
      "ield": 2455,
      "Taste": 2456,
      "Ġpulse": 2457,
      "Ġseasoned": 2458,
      "its": 2459,
      "potle": 2460,
      "Ġtrans": 2461,
      "ĠCl": 2462,
      "eled": 2463,
      "Ġsun": 2464,
      "ĠDip": 2465,
      "illon": 2466,
      "Ġcoup": 2467,
      "Ġpeanuts": 2468,
      "ĠSour": 2469,
      "Ġstove": 2470,
      "Ġbarbecue": 2471,
      "Ġtherm": 2472,
      "rom": 2473,
      "ĠEn": 2474,
      "air": 2475,
      "Coat": 2476,
      "iches": 2477,
      "ĠAs": 2478,
      "the": 2479,
      "ĠHot": 2480,
      "Rinse": 2481,
      "Ġfragr": 2482,
      "Ġbuns": 2483,
      "ometer": 2484,
      "adle": 2485,
      "greased": 2486,
      "ĠSeason": 2487,
      "Ġcustard": 2488,
      "Ġequal": 2489,
      "Ġcauliflower": 2490,
      "Ġstew": 2491,
      "amburger": 2492,
      "Ġthermometer": 2493,
      "Ġthigh": 2494,
      "Ġincorporated": 2495,
      "Ġthickens": 2496,
      "Roast": 2497,
      "ĠHe": 2498,
      "Can": 2499,
      "ĠTurkey": 2500,
      "Ġthickness": 2501,
      "Ġwee": 2502,
      "Ġatt": 2503,
      "mix": 2504,
      "ĠPowder": 2505,
      "ĠBean": 2506,
      "Ġmoderately": 2507,
      "Ġmeal": 2508,
      "Ġchar": 2509,
      "Ġac": 2510,
      "Res": 2511,
      "io": 2512,
      "Ġ--": 2513,
      "Carefully": 2514,
      "cover": 2515,
      "Ġpossible": 2516,
      "agon": 2517,
      "Ġprevent": 2518,
      "oriz": 2519,
      "Ġcereal": 2520,
      "omem": 2521,
      "Ġbeer": 2522,
      "omemade": 2523,
      "ĠDiced": 2524,
      "Ġless": 2525,
      "Ġabsorbed": 2526,
      "Ġliqueur": 2527,
      "Pro": 2528,
      "Ġright": 2529,
      "atten": 2530,
      "Ġtransl": 2531,
      "raft": 2532,
      "Ġtarragon": 2533,
      "ĠOrange": 2534,
      "ye": 2535,
      "Ġfragrant": 2536,
      "Ġwide": 2537,
      "iron": 2538,
      "Ġpoint": 2539,
      "Wash": 2540,
      "asag": 2541,
      "Ġlower": 2542,
      "Ġsprouts": 2543,
      "Ġmarinate": 2544,
      "Ġcouple": 2545,
      "Note": 2546,
      ":.": 2547,
      "ĠCasserole": 2548,
      "Ġgravy": 2549,
      "Ġbiscuits": 2550,
      "Ġbase": 2551,
      "ussels": 2552,
      "inner": 2553,
      "ST": 2554,
      "ucent": 2555,
      "40": 2556,
      "Ġlean": 2557,
      "Ġrind": 2558,
      "Ġbouillon": 2559,
      "Ġtouch": 2560,
      "Ġtranslucent": 2561,
      "iche": 2562,
      "ully": 2563,
      "Ġraspberries": 2564,
      "Ġsplit": 2565,
      "Ġpcs": 2566,
      "Cream": 2567,
      "essert": 2568,
      "So": 2569,
      "Ġsoak": 2570,
      "sized": 2571,
      "Ġparts": 2572,
      "Ġancho": 2573,
      "cous": 2574,
      "ĠFat": 2575,
      "olid": 2576,
      "Ġallspice": 2577,
      "meric": 2578,
      "Ġmacaroni": 2579,
      "Al": 2580,
      "Ġpeaches": 2581,
      "Ġpres": 2582,
      "Ġmolasses": 2583,
      "Ġoys": 2584,
      "do": 2585,
      "Ġnice": 2586,
      "bled": 2587,
      "Ġcakes": 2588,
      "fuls": 2589,
      "ouscous": 2590,
      "Ġracks": 2591,
      "ander": 2592,
      "zed": 2593,
      "Ġsieve": 2594,
      "Ġtur": 2595,
      "Ġoranges": 2596,
      "Ġfeta": 2597,
      "Ġmango": 2598,
      "Ġwas": 2599,
      "Ġtea": 2600,
      "ĠVanilla": 2601,
      "Ġwil": 2602,
      "Ġcome": 2603,
      "ugula": 2604,
      "Ġveal": 2605,
      "Shape": 2606,
      "Ġindivid": 2607,
      "ĠMexican": 2608,
      "Ġjars": 2609,
      "Ġdiagon": 2610,
      "ern": 2611,
      "crease": 2612,
      "Ġleeks": 2613,
      "sodium": 2614,
      "Reserve": 2615,
      "Ġgradually": 2616,
      "Ġcapers": 2617,
      "Ġcm": 2618,
      "EN": 2619,
      "top": 2620,
      "ĠPeanut": 2621,
      "ĠSalsa": 2622,
      "ĠBeans": 2623,
      "ĠPro": 2624,
      "Ġcandy": 2625,
      "Ġsqueeze": 2626,
      "Butter": 2627,
      "Ġungreased": 2628,
      "ente": 2629,
      "Ġcareful": 2630,
      "elicious": 2631,
      "Ġrad": 2632,
      "Ġforms": 2633,
      "Ġskewers": 2634,
      "ĠPizza": 2635,
      "Ġhalfway": 2636,
      "fto": 2637,
      "Ġkitchen": 2638,
      "ĠCarro": 2639,
      "inese": 2640,
      "pepper": 2641,
      "Slow": 2642,
      "bon": 2643,
      "Ġaddition": 2644,
      "Ġdegree": 2645,
      "ĠLow": 2646,
      "Cr": 2647,
      "Ġmins": 2648,
      "Free": 2649,
      "few": 2650,
      "Ġline": 2651,
      "Ġfinish": 2652,
      "atur": 2653,
      "Discard": 2654,
      "Ġdecor": 2655,
      "ĠWHI": 2656,
      "zo": 2657,
      "Ġreserving": 2658,
      "hot": 2659,
      "anc": 2660,
      "Ġfitted": 2661,
      "Ġbones": 2662,
      "Ġleft": 2663,
      "Ġdepending": 2664,
      "cut": 2665,
      "Ġmarshmallows": 2666,
      "One": 2667,
      "Ġdro": 2668,
      "Ġes": 2669,
      "Ġsifted": 2670,
      "Ġeat": 2671,
      "Ġeasily": 2672,
      "feway": 2673,
      "ĠSafeway": 2674,
      "ĠBanan": 2675,
      "rey": 2676,
      "emb": 2677,
      "Ġquarts": 2678,
      "Ġscraping": 2679,
      "ĠEggs": 2680,
      "Ġlefto": 2681,
      "Ġdente": 2682,
      "Ġbuttered": 2683,
      "ĠBr": 2684,
      "andw": 2685,
      "tail": 2686,
      "Ġabove": 2687,
      "Ġfried": 2688,
      "Ġfully": 2689,
      "Ġsweetened": 2690,
      "inoa": 2691,
      "Ġflavors": 2692,
      "Ġtub": 2693,
      "Ġpull": 2694,
      "Ġcolander": 2695,
      "ross": 2696,
      "Ġdrop": 2697,
      "Ġchick": 2698,
      "ĠSqu": 2699,
      "ĠSpicy": 2700,
      "aj": 2701,
      "ppings": 2702,
      "Ġwash": 2703,
      "Slowly": 2704,
      "Ġhow": 2705,
      "Ġwarmed": 2706,
      "lined": 2707,
      "Ġstarts": 2708,
      "Ġbottle": 2709,
      "ĠAr": 2710,
      "ĠPl": 2711,
      "Ġadded": 2712,
      "Ġel": 2713,
      "adish": 2714,
      "ĠGinger": 2715,
      "Ġrunning": 2716,
      "orate": 2717,
      "asagna": 2718,
      "mend": 2719,
      "Ġstrawberry": 2720,
      "ĠOz": 2721,
      "Ġpint": 2722,
      "Ġpreferably": 2723,
      "oli": 2724,
      "ĠPudding": 2725,
      "achine": 2726,
      "Be": 2727,
      "Ġgoat": 2728,
      "Ġthese": 2729,
      "tils": 2730,
      "ĠAlmon": 2731,
      "Ġwashed": 2732,
      "Ġtaco": 2733,
      "Ġmetal": 2734,
      "ering": 2735,
      "Ġcircle": 2736,
      "Ġfingers": 2737,
      "Ġpressing": 2738,
      "Ġsec": 2739,
      "Ġpears": 2740,
      "imple": 2741,
      "Ġbone": 2742,
      "Ġduck": 2743,
      "ginal": 2744,
      "ĠCreamy": 2745,
      "ĠRoll": 2746,
      "ance": 2747,
      "cktail": 2748,
      "ĠWhole": 2749,
      "Ġhamburger": 2750,
      "app": 2751,
      "Ġfoam": 2752,
      "terey": 2753,
      "Ġcreme": 2754,
      "und": 2755,
      "'re": 2756,
      "Ġdivide": 2757,
      "Ġsprayed": 2758,
      "commend": 2759,
      "ĠWHIP": 2760,
      "ĠStraw": 2761,
      "Ġmelts": 2762,
      "Ġportions": 2763,
      "Rub": 2764,
      "okes": 2765,
      "Ġscallops": 2766,
      "vert": 2767,
      "Ġris": 2768,
      "Ġturmeric": 2769,
      "**": 2770,
      "by": 2771,
      "BQ": 2772,
      "ruct": 2773,
      "250": 2774,
      "Yield": 2775,
      "ĠCur": 2776,
      "ameter": 2777,
      "ron": 2778,
      "Ġbrandy": 2779,
      "Ġskins": 2780,
      "Ġstep": 2781,
      "peas": 2782,
      "Ġindividual": 2783,
      "ky": 2784,
      "ĠFro": 2785,
      "Ġbig": 2786,
      "ĠSw": 2787,
      "ĠBlue": 2788,
      "ey": 2789,
      "ĠMustard": 2790,
      "ĠBasil": 2791,
      "Ġflore": 2792,
      "Ġund": 2793,
      "Ġscrape": 2794,
      "gan": 2795,
      "Ġpuff": 2796,
      "ala": 2797,
      "Ġaltern": 2798,
      "ĠMayonnaise": 2799,
      "uree": 2800,
      "IG": 2801,
      "Ġgrind": 2802,
      "chopped": 2803,
      "Layer": 2804,
      "Ġwhip": 2805,
      "28": 2806,
      "Ġlemons": 2807,
      "azel": 2808,
      "lease": 2809,
      "ĠSandw": 2810,
      "sci": 2811,
      "iso": 2812,
      "utto": 2813,
      "Now": 2814,
      "ken": 2815,
      "Ġmachine": 2816,
      "leaf": 2817,
      "Ġrings": 2818,
      "125": 2819,
      "ING": 2820,
      "Ġartichoke": 2821,
      "sciutto": 2822,
      "uy": 2823,
      "you": 2824,
      "ĠCut": 2825,
      "Ġgreat": 2826,
      "Ġcoating": 2827,
      "Just": 2828,
      "auce": 2829,
      "ĠmL": 2830,
      "Ġthird": 2831,
      "Form": 2832,
      "ara": 2833,
      "ĠSausage": 2834,
      "ĠGran": 2835,
      "Ġglasses": 2836,
      "Ġfive": 2837,
      "fish": 2838,
      "Ġloosely": 2839,
      "atmeal": 2840,
      "ĠGl": 2841,
      "ĠAn": 2842,
      "Ġwings": 2843,
      "Ġcutter": 2844,
      "ither": 2845,
      "Ġjul": 2846,
      "ĠCool": 2847,
      "Ġclear": 2848,
      "Ġjulien": 2849,
      "Ġbar": 2850,
      "ĠKraft": 2851,
      "Ġsized": 2852,
      "Ġpop": 2853,
      "Ġkid": 2854,
      "Ġflip": 2855,
      "ĠBanana": 2856,
      "Ġlobs": 2857,
      "orser": 2858,
      "Che": 2859,
      "ello": 2860,
      "ĠMar": 2861,
      "orseradish": 2862,
      "kins": 2863,
      "alor": 2864,
      "Ġgri": 2865,
      "asco": 2866,
      "Ġdrippings": 2867,
      "style": 2868,
      "ause": 2869,
      "ĠBBQ": 2870,
      "Ġboiled": 2871,
      "uted": 2872,
      "umps": 2873,
      "ĠUn": 2874,
      "Ġcucumbers": 2875,
      "ĠTopping": 2876,
      "ELL": 2877,
      "HE": 2878,
      "armig": 2879,
      "ĠDried": 2880,
      "Le": 2881,
      "Ġcard": 2882,
      "Ġcouscous": 2883,
      "Ġpesto": 2884,
      "tender": 2885,
      "Ġdrops": 2886,
      "Ġ300": 2887,
      "ĠHer": 2888,
      "Ġtip": 2889,
      "ĠBaking": 2890,
      "reek": 2891,
      "Ġrib": 2892,
      "Ġlentils": 2893,
      "Ġfles": 2894,
      "Ġsolid": 2895,
      "Ġhandle": 2896,
      "ructions": 2897,
      "Ġskim": 2898,
      "ĠSalmon": 2899,
      "Ġsqueezed": 2900,
      "Ġflorets": 2901,
      "Ġsmok": 2902,
      "ĠChinese": 2903,
      "LAD": 2904,
      "ette": 2905,
      "Ġrame": 2906,
      "Ġarugula": 2907,
      "Ġbecome": 2908,
      "OU": 2909,
      "abasco": 2910,
      "ĠMozzarella": 2911,
      "150": 2912,
      "70": 2913,
      "ĠSc": 2914,
      "Ġstrainer": 2915,
      "Ġclams": 2916,
      "Ġbecom": 2917,
      "meat": 2918,
      "Ġtr": 2919,
      "form": 2920,
      "Ġ180": 2921,
      "err": 2922,
      "Ġchees": 2923,
      "Ġsee": 2924,
      "...": 2925,
      "Ġcube": 2926,
      "Ġacross": 2927,
      "Ġrolled": 2928,
      "outh": 2929,
      "Cho": 2930,
      "Ġbeets": 2931,
      "ĠCoconut": 2932,
      "Ġwaxed": 2933,
      "Ġrectangle": 2934,
      "irl": 2935,
      "Ġhel": 2936,
      "Ġbars": 2937,
      "Ġwould": 2938,
      "Trim": 2939,
      "Ġgu": 2940,
      "Ġflesh": 2941,
      "Ġpear": 2942,
      "ĠKing": 2943,
      "Ġrubber": 2944,
      "ĠCOO": 2945,
      "Ġ34": 2946,
      "Ġquarters": 2947,
      "Ġtorn": 2948,
      "rib": 2949,
      "Ġrot": 2950,
      "ĠSesame": 2951,
      "Ġvinaigrette": 2952,
      "ĠHam": 2953,
      "Ġcott": 2954,
      "Ġ11": 2955,
      "Ġduring": 2956,
      "amom": 2957,
      "kra": 2958,
      "chi": 2959,
      "ĠFruit": 2960,
      "ĠGreek": 2961,
      "armigiano": 2962,
      "Ad": 2963,
      "Ġfinger": 2964,
      "Ġportion": 2965,
      "ES": 2966,
      "Ġcast": 2967,
      "ernels": 2968,
      "180": 2969,
      "roil": 2970,
      "IGH": 2971,
      "ĠOnions": 2972,
      "ton": 2973,
      "chilad": 2974,
      "Ġfillet": 2975,
      "Ġdessert": 2976,
      "elf": 2977,
      "hew": 2978,
      "mm": 2979,
      "Ġremoving": 2980,
      "erm": 2981,
      "Ġinstructions": 2982,
      "Ġbetter": 2983,
      "ĠMA": 2984,
      "Ġdishes": 2985,
      "eringue": 2986,
      "Ġsli": 2987,
      "ET": 2988,
      "Ġplac": 2989,
      "Ġlater": 2990,
      "ĠPHI": 2991,
      "ĠSteak": 2992,
      "Ġtotal": 2993,
      "Ġlg": 2994,
      "ĠCup": 2995,
      "ĠPumpkin": 2996,
      "Ġshap": 2997,
      "Ġgenerously": 2998,
      "Ġwrapper": 2999,
      "Ġroot": 3000,
      "Ġthighs": 3001,
      "acked": 3002,
      "Ġseparated": 3003,
      "Ġchipotle": 3004,
      "Ġdissolve": 3005,
      "Ġstar": 3006,
      "ĠAsian": 3007,
      "ĠExtra": 3008,
      "feren": 3009,
      "Ġsandwiches": 3010,
      "oul": 3011,
      "ĠDry": 3012,
      "Ġregular": 3013,
      "Ġoutside": 3014,
      "Ġleek": 3015,
      "ĠU": 3016,
      "Ġbroken": 3017,
      "odka": 3018,
      "ĠBroccoli": 3019,
      "ina": 3020,
      "Ġbecomes": 3021,
      "Leave": 3022,
      "PHI": 3023,
      "Ġserved": 3024,
      "ĠStuffed": 3025,
      "Ġrim": 3026,
      "Broil": 3027,
      "Ġburgers": 3028,
      "Ġsticky": 3029,
      "Ġgriddle": 3030,
      "enta": 3031,
      "ĠLight": 3032,
      "Work": 3033,
      "flavored": 3034,
      "Ġdeve": 3035,
      "ĠCinnamon": 3036,
      "Ġ200": 3037,
      "llo": 3038,
      "que": 3039,
      "Ġroma": 3040,
      "Ġchest": 3041,
      "Ġgrilled": 3042,
      "Ġsemi": 3043,
      "kon": 3044,
      "inly": 3045,
      "anese": 3046,
      "Freeze": 3047,
      "umpling": 3048,
      "Ġwilted": 3049,
      "Ġtex": 3050,
      "Scrape": 3051,
      "Ġtil": 3052,
      "Ġem": 3053,
      "Ġdipping": 3054,
      "ĠMushrooms": 3055,
      "AT": 3056,
      "cup": 3057,
      "ĠCro": 3058,
      "LADEL": 3059,
      "PHIA": 3060,
      "LADELPHIA": 3061,
      "Ġcooling": 3062,
      "olenta": 3063,
      "Process": 3064,
      "Ġkernels": 3065,
      "mel": 3066,
      "Ġjack": 3067,
      "ĠSpread": 3068,
      "ĠStrawberry": 3069,
      "ioli": 3070,
      "tc": 3071,
      "aring": 3072,
      "min": 3073,
      "hyllo": 3074,
      "Ġchickpeas": 3075,
      "ĠBake": 3076,
      "ĠPHILADELPHIA": 3077,
      "isweet": 3078,
      "ĠWal": 3079,
      "Ġbitters": 3080,
      "Ġrepeat": 3081,
      "VE": 3082,
      "ock": 3083,
      "Ġtam": 3084,
      "Ġflatten": 3085,
      "Ġassem": 3086,
      "Ġtes": 3087,
      "ĠCre": 3088,
      "Ġcracked": 3089,
      "ial": 3090,
      "Ġent": 3091,
      "ĠCOOL": 3092,
      "ucc": 3093,
      "Ġcheck": 3094,
      "ĠJuice": 3095,
      "Ġtexture": 3096,
      "inning": 3097,
      "peeled": 3098,
      "NOT": 3099,
      "Ġtable": 3100,
      "ffron": 3101,
      "Ġjalapenos": 3102,
      "Ġrimmed": 3103,
      "irds": 3104,
      "Ġcoloring": 3105,
      "Ġartichokes": 3106,
      "rais": 3107,
      "Ġpacket": 3108,
      "Ġherb": 3109,
      "Ġleftover": 3110,
      "usages": 3111,
      "ĠFinely": 3112,
      "Ġapplesauce": 3113,
      "oper": 3114,
      "Ġcheeses": 3115,
      "Ġattach": 3116,
      "Ġscallion": 3117,
      "Ġcottage": 3118,
      "ĠSeasoning": 3119,
      "asting": 3120,
      "ĠAll": 3121,
      "Ġbubbles": 3122,
      "Or": 3123,
      "Ġdiameter": 3124,
      "Ġcocktail": 3125,
      "Ġhearts": 3126,
      "ead": 3127,
      "Ġgive": 3128,
      "ond": 3129,
      "be": 3130,
      "ggiano": 3131,
      "Ne": 3132,
      "SC": 3133,
      "Ġlar": 3134,
      "ĠOri": 3135,
      "Ġscr": 3136,
      "Ġmonth": 3137,
      "ĠSooper": 3138,
      "eness": 3139,
      "zn": 3140,
      "Ġsup": 3141,
      "Ġkidney": 3142,
      "Ġsoaked": 3143,
      "ĠMuff": 3144,
      "bout": 3145,
      "Ġsemisweet": 3146,
      "Soak": 3147,
      "11": 3148,
      "ank": 3149,
      "umm": 3150,
      "quee": 3151,
      "ĠJack": 3152,
      "Ġhorseradish": 3153,
      "Ġcardamom": 3154,
      "Ġcav": 3155,
      "redge": 3156,
      "ppy": 3157,
      "Ġconcent": 3158,
      "Ġmuffins": 3159,
      "Ġquinoa": 3160,
      "Ġnow": 3161,
      "ĠWhipped": 3162,
      "Adjust": 3163,
      "As": 3164,
      "Pat": 3165,
      "Ġeasy": 3166,
      "dried": 3167,
      "Ġver": 3168,
      "Ġreaches": 3169,
      "Ġreally": 3170,
      "Ġcleaned": 3171,
      "Ġstalk": 3172,
      "cm": 3173,
      "Ġmakes": 3174,
      "ffle": 3175,
      "Ġbel": 3176,
      "Ġpr": 3177,
      "90": 3178,
      "Ġoiled": 3179,
      "nt": 3180,
      "Ġhazel": 3181,
      "ĠLo": 3182,
      "tta": 3183,
      "Ġpanko": 3184,
      "Ġapricots": 3185,
      "Ġeither": 3186,
      "ition": 3187,
      "ĠMarin": 3188,
      "Ġprosciutto": 3189,
      "Ġsprig": 3190,
      "Ġstrip": 3191,
      "ĠAdd": 3192,
      "Ġiron": 3193,
      "ita": 3194,
      "Ġetc": 3195,
      "ĠTabasco": 3196,
      "ought": 3197,
      "Ġboiler": 3198,
      "che": 3199,
      "Ġtopped": 3200,
      "ĠLime": 3201,
      "uri": 3202,
      "Ġ60": 3203,
      "pound": 3204,
      "press": 3205,
      "ĠVinegar": 3206,
      "istach": 3207,
      "Ġwhe": 3208,
      "apanese": 3209,
      "Ġraspberry": 3210,
      "aki": 3211,
      "tein": 3212,
      "ĠCombine": 3213,
      "ines": 3214,
      "Ġprov": 3215,
      "ĠThai": 3216,
      "page": 3217,
      "Ġtrim": 3218,
      "ĠFried": 3219,
      "Serves": 3220,
      "ĠSwiss": 3221,
      "cetta": 3222,
      "Ġshred": 3223,
      "ailable": 3224,
      "Don": 3225,
      "Puree": 3226,
      "de": 3227,
      "Ġphyllo": 3228,
      "usts": 3229,
      "Ġgenerous": 3230,
      "velop": 3231,
      "Ġact": 3232,
      "Ġdoll": 3233,
      "ĠRom": 3234,
      "oo": 3235,
      "isture": 3236,
      "queeze": 3237,
      "roll": 3238,
      "Ġdont": 3239,
      "Ġsetting": 3240,
      "Ġentire": 3241,
      "Ġsticking": 3242,
      "ĠNut": 3243,
      "Ġpreserves": 3244,
      "ED": 3245,
      "ially": 3246,
      "Ġmayo": 3247,
      "Ġpita": 3248,
      "Ġcreate": 3249,
      "Ġdeveined": 3250,
      "elve": 3251,
      "Ġtail": 3252,
      "Next": 3253,
      "Ġdrink": 3254,
      "ather": 3255,
      "cher": 3256,
      "Ġtong": 3257,
      "alm": 3258,
      "Ġbeing": 3259,
      "Ġpurpose": 3260,
      "ĠSeed": 3261,
      "500": 3262,
      "Ġsausages": 3263,
      "Ġnear": 3264,
      "They": 3265,
      "reak": 3266,
      "ĠCaramel": 3267,
      "Ġtriang": 3268,
      "OR": 3269,
      "aves": 3270,
      "ence": 3271,
      "Ġdelicious": 3272,
      "ĠFree": 3273,
      "ĠIce": 3274,
      "Shake": 3275,
      "Ġdoneness": 3276,
      "ĠOf": 3277,
      "Ġspringform": 3278,
      "Start": 3279,
      "Ġheap": 3280,
      "ĠAlmond": 3281,
      "Ġfilled": 3282,
      "225": 3283,
      "Ġpa": 3284,
      "efly": 3285,
      "Ġdist": 3286,
      "Ġramekins": 3287,
      "Ġconcentr": 3288,
      "ple": 3289,
      "Ġmound": 3290,
      "Ġnic": 3291,
      "Ġattachment": 3292,
      "Ġbrushing": 3293,
      "orizo": 3294,
      "Ġtwice": 3295,
      "YER": 3296,
      "ax": 3297,
      "Ġmeringue": 3298,
      "Ġlobster": 3299,
      "uten": 3300,
      "Ġfinished": 3301,
      "ĠRoast": 3302,
      "Ġbecause": 3303,
      "ĠCheesecake": 3304,
      "Ġturns": 3305,
      "clud": 3306,
      "vocad": 3307,
      "kim": 3308,
      "Ġgarn": 3309,
      "ĠVinaigrette": 3310,
      "Finely": 3311,
      "ĠPlace": 3312,
      "ellini": 3313,
      "Ġvodka": 3314,
      "Ġdoubled": 3315,
      "Ġpale": 3316,
      "itake": 3317,
      "ĠHIGH": 3318,
      "Ġmoistened": 3319,
      "ient": 3320,
      "ĠMuffins": 3321,
      "Ġfrzn": 3322,
      "Ġcrusts": 3323,
      "ĠStir": 3324,
      "Ġcaps": 3325,
      "Ġmild": 3326,
      "oiled": 3327,
      "butter": 3328,
      "Ġbath": 3329,
      "Ġtartar": 3330,
      "Ġlarger": 3331,
      "ĠFood": 3332,
      "Squeeze": 3333,
      "Ġmussels": 3334,
      "Ġavocados": 3335,
      "udge": 3336,
      "kew": 3337,
      "rost": 3338,
      "ince": 3339,
      "Ġlumps": 3340,
      "Ġbeginning": 3341,
      "Marin": 3342,
      "Ġdisk": 3343,
      "Ġspicy": 3344,
      "ĠStew": 3345,
      "Ġ/": 3346,
      "45": 3347,
      "ret": 3348,
      "ĠNote": 3349,
      "cip": 3350,
      "rg": 3351,
      "Ġwafer": 3352,
      "glish": 3353,
      "osition": 3354,
      "Ġapricot": 3355,
      "Mash": 3356,
      "fast": 3357,
      "uf": 3358,
      "Ġbubbling": 3359,
      "Ġbriefly": 3360,
      "cream": 3361,
      "ants": 3362,
      "Ġflame": 3363,
      "ĠTor": 3364,
      "hydr": 3365,
      "LL": 3366,
      "ments": 3367,
      "Ġbagu": 3368,
      "Ġcheesecake": 3369,
      "orm": 3370,
      "ĠWine": 3371,
      "Ġchestnuts": 3372,
      "Ġsaffron": 3373,
      "Ġbelow": 3374,
      "ĠPine": 3375,
      "Ġskewer": 3376,
      "irin": 3377,
      "law": 3378,
      "ĠChees": 3379,
      "Ġpim": 3380,
      "umb": 3381,
      "Ġtongs": 3382,
      "Lower": 3383,
      "Ġstyle": 3384,
      "Ġkale": 3385,
      "ĠCherry": 3386,
      "Flip": 3387,
      "Ġ'": 3388,
      "ori": 3389,
      "Ġmeasuring": 3390,
      "NT": 3391,
      "Ġcashew": 3392,
      "ĠPo": 3393,
      "Ġclose": 3394,
      "Ġpulp": 3395,
      "Ġtenderloin": 3396,
      "ĠBar": 3397,
      "ĠCooked": 3398,
      "ĠCrack": 3399,
      "anched": 3400,
      "root": 3401,
      "ĠOriginal": 3402,
      "Ladle": 3403,
      "Ġpancake": 3404,
      "Ġlegs": 3405,
      "ĠIf": 3406,
      "Ġdiagonally": 3407,
      "Ġ*": 3408,
      "Ġpass": 3409,
      "cipes": 3410,
      "ĠMon": 3411,
      "Ġstarting": 3412,
      "Ġstr": 3413,
      "Scoop": 3414,
      "ĠSto": 3415,
      "Ġcranberry": 3416,
      "ĠPeppers": 3417,
      "Ġinstead": 3418,
      "!)": 3419,
      "Ġdusting": 3420,
      "alories": 3421,
      "300": 3422,
      "Ġseam": 3423,
      "Ġhelp": 3424,
      "Ġpod": 3425,
      "Ġnicely": 3426,
      "ality": 3427,
      "Coars": 3428,
      "Ġhandful": 3429,
      "umplings": 3430,
      "Ġgrape": 3431,
      "isin": 3432,
      "ishes": 3433,
      "inned": 3434,
      "About": 3435,
      "Ġkg": 3436,
      "ĠCarrot": 3437,
      "Ġdates": 3438,
      "SCAR": 3439,
      "Break": 3440,
      "Ġpancakes": 3441,
      "ĠSmoked": 3442,
      "Ġloosen": 3443,
      "ĠMAYER": 3444,
      "Ġtry": 3445,
      "Ġlrg": 3446,
      "Ġromaine": 3447,
      "175": 3448,
      "grain": 3449,
      "ĠSquash": 3450,
      "Ġpeach": 3451,
      "sticks": 3452,
      "ĠOSCAR": 3453,
      "ĠAvocad": 3454,
      "Ġfall": 3455,
      "Ġrel": 3456,
      "'ll": 3457,
      "Ġbare": 3458,
      "ĠChi": 3459,
      "Op": 3460,
      "Ġlasagna": 3461,
      "Ġorder": 3462,
      "commended": 3463,
      "CO": 3464,
      "oram": 3465,
      "ĠApp": 3466,
      "Ġoyster": 3467,
      "Ġstring": 3468,
      "ult": 3469,
      ".,": 3470,
      "mit": 3471,
      "Ġresemb": 3472,
      "Ġsmaller": 3473,
      "Ġtossing": 3474,
      "Se": 3475,
      "Ġmoisture": 3476,
      "Ġgrapes": 3477,
      "cress": 3478,
      "port": 3479,
      "Ġcent": 3480,
      "ĠParsley": 3481,
      "ively": 3482,
      "Ġbags": 3483,
      "ĠCran": 3484,
      "joram": 3485,
      "Ġtight": 3486,
      "ured": 3487,
      "Working": 3488,
      "Knead": 3489,
      "Ġstemmed": 3490,
      "Ġquarter": 3491,
      "Ġserr": 3492,
      "ĠCrisp": 3493,
      "eri": 3494,
      "Ġsprinkling": 3495,
      "utons": 3496,
      "alian": 3497,
      "Ġstarch": 3498,
      "ears": 3499,
      "Ġwon": 3500,
      "Ġcrabmeat": 3501,
      "pre": 3502,
      "Ġpancetta": 3503,
      "Ġundrained": 3504,
      "Ġdamp": 3505,
      "ourbon": 3506,
      "At": 3507,
      "Ġ100": 3508,
      "Ġsom": 3509,
      "Ġreheat": 3510,
      "ĠHeat": 3511,
      "oat": 3512,
      "Ġresembles": 3513,
      "iber": 3514,
      "Ġpolenta": 3515,
      "Ġhomemade": 3516,
      "ummer": 3517,
      "abo": 3518,
      "efore": 3519,
      "Ġweek": 3520,
      "Ġheatproof": 3521,
      "Ġovenproof": 3522,
      "Ġmeasure": 3523,
      "ento": 3524,
      "althy": 3525,
      "Ġconcentrate": 3526,
      "Ġpor": 3527,
      "ĠTaste": 3528,
      "ĠJapanese": 3529,
      "ĠFlavor": 3530,
      "ĠSandwich": 3531,
      "ĠBarbecue": 3532,
      "efruit": 3533,
      "ĠStyle": 3534,
      "from": 3535,
      "ĠSize": 3536,
      "sc": 3537,
      "with": 3538,
      "Ġcore": 3539,
      "afood": 3540,
      "ĠSpaghetti": 3541,
      "ĠVeget": 3542,
      "ĠEnglish": 3543,
      "Ġusually": 3544,
      "Ġslivered": 3545,
      "Ġheaping": 3546,
      "Ġsix": 3547,
      "Ġfraiche": 3548,
      "ĠZucchini": 3549,
      "Ġweeks": 3550,
      "Ġlimes": 3551,
      "ĠRolls": 3552,
      "rawn": 3553,
      "Ġnect": 3554,
      "afe": 3555,
      "Ġdistrib": 3556,
      "iitake": 3557,
      "Ġown": 3558,
      "ways": 3559,
      "sugar": 3560,
      "melet": 3561,
      "ingu": 3562,
      "Ġpistach": 3563,
      "eli": 3564,
      "atever": 3565,
      "ĠCurry": 3566,
      "Ġloin": 3567,
      "Ġsmoking": 3568,
      "ner": 3569,
      "ousse": 3570,
      "fect": 3571,
      "Ġtins": 3572,
      "ĠParmigiano": 3573,
      "ĠDe": 3574,
      "Ġlik": 3575,
      "Ġcaramelized": 3576,
      "Ġpier": 3577,
      "AKE": 3578,
      "ided": 3579,
      "Ġchilli": 3580,
      "ĠCabbage": 3581,
      "Uncover": 3582,
      "Increase": 3583,
      "ĠCrust": 3584,
      "ĠBon": 3585,
      "azed": 3586,
      "Ġcontin": 3587,
      "Ġpureed": 3588,
      "Cold": 3589,
      "rus": 3590,
      "ules": 3591,
      "ty": 3592,
      "aster": 3593,
      "pos": 3594,
      "Ġpartially": 3595,
      "ettucc": 3596,
      "Check": 3597,
      "Ġbittersweet": 3598,
      "bake": 3599,
      "Ġmarjoram": 3600,
      "06": 3601,
      "Ġeasier": 3602,
      "cooking": 3603,
      "ella": 3604,
      "aprika": 3605,
      "Ġdirectly": 3606,
      "Juice": 3607,
      "like": 3608,
      "oid": 3609,
      "icient": 3610,
      "Ġpalm": 3611,
      "Ġnonfat": 3612,
      "Ġbaguette": 3613,
      "ĠCilantro": 3614,
      "ĠPh": 3615,
      "Ġslicing": 3616,
      "gran": 3617,
      "Ġdissolves": 3618,
      "400": 3619,
      "Ve": 3620,
      "Ġtap": 3621,
      "Ġsugars": 3622,
      "Ġblanched": 3623,
      "Ġloaves": 3624,
      "rem": 3625,
      "arsn": 3626,
      "igor": 3627,
      "water": 3628,
      "Ġwor": 3629,
      "loaf": 3630,
      "Ġgas": 3631,
      "Toast": 3632,
      "ph": 3633,
      "Ġfire": 3634,
      "ĠCheesy": 3635,
      "AL": 3636,
      "ĠAvocado": 3637,
      "Ġladle": 3638,
      "Ġcould": 3639,
      "Ġflaked": 3640,
      "Ġgrate": 3641,
      "Ġbott": 3642,
      "Ġlog": 3643,
      "ĠFreshly": 3644,
      "Ġsmoke": 3645,
      "Ġold": 3646,
      "ache": 3647,
      "mmediately": 3648,
      "bet": 3649,
      "Ġrelease": 3650,
      "Ġbrowning": 3651,
      "Altern": 3652,
      "Ġtube": 3653,
      "Ġitalian": 3654,
      "Ġhazelnuts": 3655,
      "IT": 3656,
      "itional": 3657,
      "Ġstream": 3658,
      "Ġsuff": 3659,
      "Ġregis": 3660,
      "ĠScall": 3661,
      "itrus": 3662,
      "ubble": 3663,
      "Ġdollop": 3664,
      "vil": 3665,
      "Ġoverl": 3666,
      "ĠTuna": 3667,
      "Ġvigor": 3668,
      "otch": 3669,
      "Ġty": 3670,
      "Ġoatmeal": 3671,
      "ĠQuick": 3672,
      "unchy": 3673,
      "Fin": 3674,
      "utney": 3675,
      "Ġbrisk": 3676,
      "Ġshaking": 3677,
      "lean": 3678,
      "Immediately": 3679,
      "Ġfig": 3680,
      "Ġpaddle": 3681,
      "Ġbasting": 3682,
      "Ġchorizo": 3683,
      "Ġbur": 3684,
      "ERS": 3685,
      "Ġ23": 3686,
      "avour": 3687,
      "Ġlevel": 3688,
      "ushi": 3689,
      "oodle": 3690,
      "Ġsteamer": 3691,
      "Ġblade": 3692,
      "Ġcharred": 3693,
      "ĠAsparagus": 3694,
      "Ġproport": 3695,
      "Ġseedless": 3696,
      "Ġsufficient": 3697,
      "ĠTe": 3698,
      "Ġsodium": 3699,
      "Ġjuiced": 3700,
      "Ġshelled": 3701,
      "ified": 3702,
      "Ġpers": 3703,
      "irloin": 3704,
      "mg": 3705,
      "Ġbottoms": 3706,
      "ubbed": 3707,
      "Pre": 3708,
      "ĠYou": 3709,
      "ĠCrab": 3710,
      "Ġgranules": 3711,
      "Ġbarley": 3712,
      "Ġenchilad": 3713,
      "Ġbarely": 3714,
      "Ġgall": 3715,
      "Ġcooks": 3716,
      "assic": 3717,
      "Ġcombin": 3718,
      "Ġ:": 3719,
      "ashes": 3720,
      "lenda": 3721,
      "Ġinclud": 3722,
      "ĠFish": 3723,
      "Ġvigorously": 3724,
      "ottom": 3725,
      "ajun": 3726,
      "atively": 3727,
      "Ġcrockpot": 3728,
      "Ġquite": 3729,
      "Ġimp": 3730,
      "Ġlift": 3731,
      "Ġanise": 3732,
      "Ġassemble": 3733,
      "cha": 3734,
      "yaki": 3735,
      "35": 3736,
      "Ġdrizz": 3737,
      "Ġ250": 3738,
      "Ġclos": 3739,
      "Ġtast": 3740,
      "ĠSpan": 3741,
      "ĠLakes": 3742,
      "ign": 3743,
      "Ġbubble": 3744,
      "Ġsau": 3745,
      "ĠBars": 3746,
      "Ġlooks": 3747,
      "uid": 3748,
      "Ġfind": 3749,
      "ĠYogurt": 3750,
      "Ġouter": 3751,
      "melon": 3752,
      "Ġburger": 3753,
      "Ġvari": 3754,
      "ĠLand": 3755,
      "Marinate": 3756,
      "ouse": 3757,
      "eseed": 3758,
      "ĠTart": 3759,
      "flour": 3760,
      "Ġlin": 3761,
      "ĠTortill": 3762,
      "wo": 3763,
      "atural": 3764,
      "Ġcoals": 3765,
      "Ġcupcakes": 3766,
      "omegran": 3767,
      "Dust": 3768,
      "ĠPesto": 3769,
      "Ġcircles": 3770,
      "Ġjulienned": 3771,
      "ryst": 3772,
      "ĠBalsamic": 3773,
      "Ġactive": 3774,
      "Ġwont": 3775,
      "Ġranch": 3776,
      "Ġcreamed": 3777,
      "ĠWheat": 3778,
      "ashion": 3779,
      "Ġtemp": 3780,
      "Ġcontinu": 3781,
      "ĠCucumber": 3782,
      "ĠSe": 3783,
      "solve": 3784,
      "Ġheads": 3785,
      "Ġflavored": 3786,
      "Ġdoesn": 3787,
      "Ġcloth": 3788,
      "ĠHerb": 3789,
      "lash": 3790,
      "Ġpuffed": 3791,
      "rad": 3792,
      "Ġang": 3793,
      "Ġregisters": 3794,
      "hub": 3795,
      "ĠMedium": 3796,
      "presso": 3797,
      "Ġwatercress": 3798,
      "Ġsecure": 3799,
      "ĠRanch": 3800,
      "Ġnew": 3801,
      "bleached": 3802,
      "Ġoysters": 3803,
      "ĠNew": 3804,
      "Ġcurd": 3805,
      "Ġholes": 3806,
      "Ġsunflower": 3807,
      "Ġfluid": 3808,
      "Ġring": 3809,
      "Ġworks": 3810,
      "ĠSpanish": 3811,
      "ĠNoodles": 3812,
      "hubarb": 3813,
      "Ġchuck": 3814,
      "garlic": 3815,
      "Ġwalnut": 3816,
      "ettuccine": 3817,
      "Sweet": 3818,
      "Ġdog": 3819,
      "ĠPreheat": 3820,
      "ĠFrozen": 3821,
      "omegranate": 3822,
      "Ġbatch": 3823,
      "ĠYellow": 3824,
      "ulse": 3825,
      "ĠStuff": 3826,
      "cloth": 3827,
      "80": 3828,
      "CE": 3829,
      "Ġshav": 3830,
      "ĠHomemade": 3831,
      "Ġcrusty": 3832,
      "LE": 3833,
      "ory": 3834,
      "Ġmany": 3835,
      "NOTE": 3836,
      "ĠCranberry": 3837,
      "sliced": 3838,
      "Ġsake": 3839,
      "Ġkettle": 3840,
      "alam": 3841,
      "ields": 3842,
      "Ġcrush": 3843,
      "armal": 3844,
      "Ġrecipes": 3845,
      "amily": 3846,
      "this": 3847,
      "Ġrounded": 3848,
      "Ġcupcake": 3849,
      "ĠSimple": 3850,
      "entation": 3851,
      "Ġtoppings": 3852,
      "Ġpecan": 3853,
      "Ġmand": 3854,
      "Ġfur": 3855,
      "amole": 3856,
      "umble": 3857,
      "Ġgrapefruit": 3858,
      "ugh": 3859,
      "Ġenvelop": 3860,
      "ĠJalapen": 3861,
      "Ġcroutons": 3862,
      "Ġadv": 3863,
      "Ġsnow": 3864,
      "ĠShe": 3865,
      "epar": 3866,
      "prefer": 3867,
      "brown": 3868,
      "cini": 3869,
      "Ġdinner": 3870,
      "acamole": 3871,
      "eam": 3872,
      "atill": 3873,
      "ĠBell": 3874,
      "Ġavoid": 3875,
      "ĠZest": 3876,
      "armalade": 3877,
      "OW": 3878,
      "Ġ#": 3879,
      "Ġchard": 3880,
      "Ġshaker": 3881,
      "oux": 3882,
      "ĠBay": 3883,
      "imply": 3884,
      "Ġsift": 3885,
      "Ġespresso": 3886,
      "Ġshapes": 3887,
      "anks": 3888,
      "Ġchef": 3889,
      "stir": 3890,
      "Ġpush": 3891,
      "Ġwedge": 3892,
      "Ġmince": 3893,
      "Ġwild": 3894,
      "Ġstone": 3895,
      "acha": 3896,
      "apping": 3897,
      "iny": 3898,
      "Ġtough": 3899,
      "Ġwhatever": 3900,
      "ards": 3901,
      "ĠPineapple": 3902,
      "berg": 3903,
      "Ġmonths": 3904,
      "ket": 3905,
      "ĠSyrup": 3906,
      "aspberry": 3907,
      "Ġfurther": 3908,
      "ban": 3909,
      "atak": 3910,
      "ifferen": 3911,
      "Ġpopcorn": 3912,
      "inguine": 3913,
      "Ġpret": 3914,
      "ios": 3915,
      "otto": 3916,
      "Ġlot": 3917,
      "Ġhus": 3918,
      "ĠGrand": 3919,
      "ĠDivided": 3920,
      "ĠJELL": 3921,
      "uriko": 3922,
      "atakuriko": 3923,
      "Ġpretz": 3924,
      "32": 3925,
      "ĠTHE": 3926,
      "Ġverm": 3927,
      "Ġcentre": 3928,
      "Ġcashews": 3929,
      "safe": 3930,
      "Ġwhat": 3931,
      "Ġincorporate": 3932,
      "ĠLamb": 3933,
      "Ġspreading": 3934,
      "Ġcrumbly": 3935,
      "Ġpickled": 3936,
      "ĠMonterey": 3937,
      "Ġshiitake": 3938,
      "Dissolve": 3939,
      "bottom": 3940,
      "Ġhoriz": 3941,
      "white": 3942,
      "Ġcheesecloth": 3943,
      "Ġcrumble": 3944,
      "Ġsteamed": 3945,
      "Ġsizz": 3946,
      "Ġparsn": 3947,
      "ations": 3948,
      "Ġunpeeled": 3949,
      "Whip": 3950,
      "Ġchunky": 3951,
      "Ġpic": 3952,
      "Ġcres": 3953,
      "Ġpressure": 3954,
      "Ġplacing": 3955,
      "Ġcall": 3956,
      "ganic": 3957,
      "Ġbulk": 3958,
      "ĠGra": 3959,
      "ĠCoffee": 3960,
      "ĠArtich": 3961,
      "Ġrelish": 3962,
      "bow": 3963,
      "ĠDough": 3964,
      "Ġunbleached": 3965,
      "arpone": 3966,
      "elveeta": 3967,
      "ĠStuffing": 3968,
      "Ġears": 3969,
      "ĠAm": 3970,
      "carpone": 3971,
      "Ġcod": 3972,
      "Ġthirds": 3973,
      "plants": 3974,
      "Ġint": 3975,
      "amboo": 3976,
      "Ġswirl": 3977,
      "Ġcour": 3978,
      "emble": 3979,
      "ĠChops": 3980,
      "rants": 3981,
      "Ġcoun": 3982,
      "uyere": 3983,
      "Separ": 3984,
      "preferably": 3985,
      "place": 3986,
      "Ġeight": 3987,
      "ems": 3988,
      "agne": 3989,
      "ĠInstant": 3990,
      "Ġnectar": 3991,
      "no": 3992,
      "ila": 3993,
      "ĠMini": 3994,
      "Ġseparately": 3995,
      "Ġavailable": 3996,
      "Reggiano": 3997,
      "Ġkind": 3998,
      "Ġdumplings": 3999,
      "Ġlu": 4000,
      "umbo": 4001,
      "esh": 4002,
      "ĠSun": 4003,
      "ĠBAK": 4004,
      "obo": 4005,
      "Ġdifferen": 4006,
      "active": 4007,
      "ampagne": 4008,
      "Ġlump": 4009,
      "Ġwithin": 4010,
      "Ġdiagonal": 4011,
      "Ġalternately": 4012,
      "Ġperson": 4013,
      "Ġgrilling": 4014,
      "Ġresul": 4015,
      "Ġtruff": 4016,
      "ĠCrock": 4017,
      "Ġnote": 4018,
      "ĠInto": 4019,
      "kewarm": 4020,
      "aise": 4021,
      "weed": 4022,
      "rawns": 4023,
      "Pulse": 4024,
      "aque": 4025,
      "AN": 4026,
      "recommended": 4027,
      "ĠPLA": 4028,
      "Ġmasala": 4029,
      "eriyaki": 4030,
      "Ġ[": 4031,
      "enty": 4032,
      "Ġprod": 4033,
      "ĠTofu": 4034,
      "Ġmonterey": 4035,
      "Ġstrong": 4036,
      "Ġsirloin": 4037,
      "Ġcontainers": 4038,
      "Ġcavity": 4039,
      "Ġadvance": 4040,
      "mint": 4041,
      "rir": 4042,
      "Ġfroth": 4043,
      "ĠChip": 4044,
      "illing": 4045,
      "coal": 4046,
      "Ġbrine": 4047,
      "Ġdozen": 4048,
      "Ġopaque": 4049,
      "Ġanchovy": 4050,
      "ending": 4051,
      "Ġtips": 4052,
      "rout": 4053,
      "ĠGold": 4054,
      "Ġabsorb": 4055,
      "Ġ)": 4056,
      "ĠSk": 4057,
      "ĠSmall": 4058,
      "emi": 4059,
      "ĠFeta": 4060,
      "Ġsear": 4061,
      "ountry": 4062,
      "NTERS": 4063,
      "Ġeye": 4064,
      "ĠPick": 4065,
      "Ġsection": 4066,
      "merican": 4067,
      "Ġcounter": 4068,
      "Pe": 4069,
      "aint": 4070,
      "riracha": 4071,
      "try": 4072,
      "ggie": 4073,
      "ĠBreasts": 4074,
      "ground": 4075,
      "ĠCarrots": 4076,
      "ĠPLANTERS": 4077,
      "hod": 4078,
      "ĠBaby": 4079,
      "away": 4080,
      "Ġlengths": 4081,
      "350": 4082,
      "Ġbund": 4083,
      "Ġpenne": 4084,
      "Ġpatty": 4085,
      "Ġmill": 4086,
      "ĠRa": 4087,
      "Ġrav": 4088,
      "Ġadobo": 4089,
      "ume": 4090,
      "Ġtwist": 4091,
      "ĠTaco": 4092,
      "ĠRos": 4093,
      "Ġpickle": 4094,
      "ura": 4095,
      "Ġmaker": 4096,
      "isted": 4097,
      "Ġpepperoni": 4098,
      "----": 4099,
      "Ġones": 4100,
      "seal": 4101,
      "wheat": 4102,
      "Ġbreaking": 4103,
      "Ġfoamy": 4104,
      "Ġsimple": 4105,
      "Ġzip": 4106,
      "!!": 4107,
      "Ġpressed": 4108,
      "ama": 4109,
      "kets": 4110,
      "Vegetable": 4111,
      "Ġomit": 4112,
      "Ġmatch": 4113,
      "ĠCumin": 4114,
      "ĠSn": 4115,
      "Ġeggplants": 4116,
      "ĠPecan": 4117,
      "Ġlard": 4118,
      "Ġmiso": 4119,
      "Ġcharcoal": 4120,
      "ĠApples": 4121,
      "packed": 4122,
      "reactive": 4123,
      "ĠTO": 4124,
      "Ġbrownie": 4125,
      "Steam": 4126,
      "aturated": 4127,
      "TO": 4128,
      "ompan": 4129,
      "Ġseg": 4130,
      "Ġomelet": 4131,
      "acle": 4132,
      "Ġbutternut": 4133,
      "ĠClassic": 4134,
      "such": 4135,
      "Ġliking": 4136,
      "Separate": 4137,
      "ĠBAKER": 4138,
      "Ġshoulder": 4139,
      "end": 4140,
      "Ġstop": 4141,
      "Ġwrappers": 4142,
      "ao": 4143,
      "ĠSplenda": 4144,
      "Ġhole": 4145,
      "Ġmark": 4146,
      "Ġwrapped": 4147,
      "Ġpods": 4148,
      "Ġmot": 4149,
      "Ġinvert": 4150,
      "ĠMacaroni": 4151,
      "ĠPeeled": 4152,
      "ecial": 4153,
      "Ġcurrants": 4154,
      "alo": 4155,
      "Ġgets": 4156,
      "Ġthread": 4157,
      "UT": 4158,
      "don": 4159,
      "season": 4160,
      "Ġself": 4161,
      "lester": 4162,
      "glaze": 4163,
      "Ġsolids": 4164,
      "ETA": 4165,
      "ives": 4166,
      "elph": 4167,
      "aikon": 4168,
      "lesterol": 4169,
      "elphia": 4170,
      "baked": 4171,
      "Ġ160": 4172,
      "ĠBreak": 4173,
      "estle": 4174,
      "Dec": 4175,
      "entle": 4176,
      "ĠOld": 4177,
      "iladelphia": 4178,
      "Ġcutlets": 4179,
      "Ġques": 4180,
      "ĠBreast": 4181,
      "ĠBlueberry": 4182,
      "Ġlukewarm": 4183,
      "ĠNo": 4184,
      "ested": 4185,
      "Ġleg": 4186,
      "ĠVegetables": 4187,
      "bottomed": 4188,
      ");": 4189,
      "Warm": 4190,
      "Ġdashes": 4191,
      "Ġpistachios": 4192,
      "ontally": 4193,
      "Ġpitcher": 4194,
      "Ġmolds": 4195,
      "Ġbamboo": 4196,
      "ĠEggplant": 4197,
      "ĠWarm": 4198,
      "Ġmort": 4199,
      "ami": 4200,
      "ĠSea": 4201,
      "ĠAmerican": 4202,
      "vies": 4203,
      "Ġrare": 4204,
      "Scatter": 4205,
      "ĠBroth": 4206,
      "Ġesc": 4207,
      "acing": 4208,
      "ctions": 4209,
      "repes": 4210,
      "Ġravioli": 4211,
      "bas": 4212,
      "ĠUse": 4213,
      "ouble": 4214,
      "Ġgentle": 4215,
      "ĠLi": 4216,
      "Ġallowing": 4217,
      "boiled": 4218,
      "Ġwish": 4219,
      "ĠCal": 4220,
      "Ġradishes": 4221,
      "Ġenvelope": 4222,
      "Ġstockpot": 4223,
      "ĠPack": 4224,
      "Ġskinned": 4225,
      "ĠSaute": 4226,
      "Sl": 4227,
      "arian": 4228,
      "Ġroux": 4229,
      "ĠNOT": 4230,
      "Ġblock": 4231,
      "ĠCooking": 4232,
      "Ġmanuf": 4233,
      "Ġincrease": 4234,
      "Ġbrisket": 4235,
      "ĠShort": 4236,
      "Ġcolored": 4237,
      "erry": 4238,
      "ĠCelery": 4239,
      "Ġsmashed": 4240,
      "order": 4241,
      "Ġheart": 4242,
      "Ġradish": 4243,
      "Ġcryst": 4244,
      "ĠRaspberry": 4245,
      "ĠOven": 4246,
      "Ġmelon": 4247,
      "Ġmarmalade": 4248,
      "emary": 4249,
      "Ġ500": 4250,
      "Ġpock": 4251,
      "Ġsprinkled": 4252,
      "Ġjulienne": 4253,
      "Ġhorizontally": 4254,
      "ingles": 4255,
      "dough": 4256,
      "ĠAp": 4257,
      "ĠLea": 4258,
      "Ġagainst": 4259,
      "Ġresults": 4260,
      "Dredge": 4261,
      "Ġokra": 4262,
      "arf": 4263,
      "Ġ17": 4264,
      "Ġcontents": 4265,
      "ji": 4266,
      "iment": 4267,
      "Ġstuffed": 4268,
      "Olive": 4269,
      "illi": 4270,
      "These": 4271,
      "Ġmicrowaveable": 4272,
      "Ġrequ": 4273,
      "Ġsoon": 4274,
      "Ġperfect": 4275,
      "Ġsoaking": 4276,
      "ĠSup": 4277,
      "hern": 4278,
      "Ġsauteed": 4279,
      "Ġforming": 4280,
      "ĠSoft": 4281,
      "acture": 4282,
      "Ġreach": 4283,
      "160": 4284,
      "ille": 4285,
      "Ġgm": 4286,
      "Ġyields": 4287,
      "ELVE": 4288,
      "ĠStock": 4289,
      "Ġoverlapping": 4290,
      "work": 4291,
      "Ġboils": 4292,
      "raised": 4293,
      "ELVEETA": 4294,
      "Dash": 4295,
      "Skim": 4296,
      "ĠOregano": 4297,
      "Ġdifferent": 4298,
      "Ġsections": 4299,
      "ĠAN": 4300,
      "ĠVELVEETA": 4301,
      "oca": 4302,
      "Ġbunches": 4303,
      "ĠBreakfast": 4304,
      "iracle": 4305,
      "ĠMel": 4306,
      "There": 4307,
      "Ġmanufacture": 4308,
      "Ġgal": 4309,
      "Ġalways": 4310,
      "ibut": 4311,
      "Ġhen": 4312,
      "Ġhash": 4313,
      "Dice": 4314,
      "Lo": 4315,
      "ava": 4316,
      "ĠVelveeta": 4317,
      "Ġburning": 4318,
      "olone": 4319,
      "ĠBall": 4320,
      "ĠMaple": 4321,
      "arget": 4322,
      "ĠChun": 4323,
      "Run": 4324,
      "Ġthrow": 4325,
      "ĠBurgers": 4326,
      "ĠTarget": 4327,
      "ĠMango": 4328,
      "grated": 4329,
      "Pepper": 4330,
      "quila": 4331,
      "ĠLe": 4332,
      "Ġwafers": 4333,
      "ĠMint": 4334,
      "Ġtomatill": 4335,
      "ĠVirgin": 4336,
      "any": 4337,
      "Ġwatermelon": 4338,
      "Ġborder": 4339,
      "ls": 4340,
      "Ġproportion": 4341,
      "ION": 4342,
      "Ġbourbon": 4343,
      "Ġseafood": 4344,
      "ĠLasagna": 4345,
      "ĠThinly": 4346,
      "Ġtype": 4347,
      "Ġgallon": 4348,
      "Ġchefs": 4349,
      "Wipe": 4350,
      "Ġ28": 4351,
      "blano": 4352,
      "Ġbulb": 4353,
      "ĠJalapeno": 4354,
      "zu": 4355,
      "Ġess": 4356,
      "Ġcovering": 4357,
      "Ġfeel": 4358,
      "ĠSingles": 4359,
      "Ġspoonfuls": 4360,
      "ĠCajun": 4361,
      "Ġspears": 4362,
      "Ġtamari": 4363,
      "Ġpur": 4364,
      "ĠSake": 4365,
      "Ġtriangles": 4366,
      "ĠPhiladelphia": 4367,
      "450": 4368,
      "Ġinter": 4369,
      "easure": 4370,
      "Ġseaweed": 4371,
      "Ġprawns": 4372,
      "Ġrock": 4373,
      "Stuff": 4374,
      "Style": 4375,
      "ĠBoneless": 4376,
      "Ice": 4377,
      "ative": 4378,
      "seed": 4379,
      "Ġscal": 4380,
      "Ġspoonful": 4381,
      "Ġfigs": 4382,
      "sealable": 4383,
      "Ġmat": 4384,
      "ĠBiscuit": 4385,
      "Ġmarinara": 4386,
      "ĠRosemary": 4387,
      "Ġlisted": 4388,
      "leslaw": 4389,
      "Ġcaraway": 4390,
      "Ġcolour": 4391,
      "pty": 4392,
      "Ġdrizzling": 4393,
      "Ġpomegranate": 4394,
      "ssence": 4395,
      "Ġtiny": 4396,
      "Ġrap": 4397,
      "otes": 4398,
      "ĠBest": 4399,
      "Ġbasket": 4400,
      "kraut": 4401,
      "rel": 4402,
      "ically": 4403,
      "abi": 4404,
      "Ġnatural": 4405,
      "Ġsho": 4406,
      "Ġhere": 4407,
      "erkraut": 4408,
      "Ġpower": 4409,
      "Ġdid": 4410,
      "Ġ55": 4411,
      "ĠDinner": 4412,
      "ĠLet": 4413,
      "Ġfruits": 4414,
      "ONE": 4415,
      "Ġpimento": 4416,
      "ĠLeaves": 4417,
      "Ġthose": 4418,
      "ĠPaprika": 4419,
      "ffles": 4420,
      "Ġens": 4421,
      "ĠSpice": 4422,
      "beat": 4423,
      "Ġheating": 4424,
      "Ġrhubarb": 4425,
      "Ġcenters": 4426,
      "ĠChipotle": 4427,
      "Seal": 4428,
      "Ġproportionately": 4429,
      "Ġcaster": 4430,
      "rum": 4431,
      "quick": 4432,
      "Ġwhere": 4433,
      "Ġgarnished": 4434,
      "Ġcrescent": 4435,
      "ob": 4436,
      "acos": 4437,
      "Ġcrunchy": 4438,
      "Ġanchovies": 4439,
      "Coarse": 4440,
      "alamata": 4441,
      "Oil": 4442,
      "Ġstack": 4443,
      "Ġbrowns": 4444,
      "Flatten": 4445,
      "Ġenchilada": 4446,
      "Ġthink": 4447,
      "ĠFry": 4448,
      "ĠOatmeal": 4449,
      "Ġprett": 4450,
      "Ġformed": 4451,
      "arbo": 4452,
      "Ġpoppy": 4453,
      "ĠTender": 4454,
      "iw": 4455,
      "Ġsil": 4456,
      "ĠMac": 4457,
      "Ġcorner": 4458,
      "Ġfollowing": 4459,
      "ĠBasic": 4460,
      "ĠMeatballs": 4461,
      "medium": 4462,
      "ouffle": 4463,
      "raditional": 4464,
      "Ġgluten": 4465,
      "airy": 4466,
      "ĠCreme": 4467,
      "arbohydr": 4468,
      "Ġorzo": 4469,
      "ĠGoat": 4470,
      "Ġbran": 4471,
      "ettes": 4472,
      "Ġpea": 4473,
      "Ġflow": 4474,
      "Ġgingerroot": 4475,
      "Ġwait": 4476,
      "ĠCrispy": 4477,
      "Ġflavour": 4478,
      "ait": 4479,
      "Ġtest": 4480,
      "isco": 4481,
      "Ġbeet": 4482,
      "ĠGu": 4483,
      "Ġcandied": 4484,
      "Ġincluding": 4485,
      "Ġscatter": 4486,
      "Ġmascarpone": 4487,
      "Bl": 4488,
      "Ġpunch": 4489,
      "ember": 4490,
      "Ġmac": 4491,
      "ris": 4492,
      "olive": 4493,
      "Ġpkt": 4494,
      "ternal": 4495,
      "Ġserrano": 4496,
      "ĠApric": 4497,
      "Over": 4498,
      "Ġmight": 4499,
      "ĠFrosting": 4500,
      "ĠHalf": 4501,
      "ulled": 4502,
      "ĠPancakes": 4503,
      "ioca": 4504,
      "Ġnight": 4505,
      "Ġfrothy": 4506,
      "\".": 4507,
      "SE": 4508,
      "uls": 4509,
      "Ġmortar": 4510,
      "Ġtie": 4511,
      "Ġorganic": 4512,
      "Ġgaram": 4513,
      "Ġblackberries": 4514,
      "ĠWrap": 4515,
      "Ġcrepe": 4516,
      "Ġcandies": 4517,
      "usset": 4518,
      "ĠSmooth": 4519,
      "Ġdrip": 4520,
      "Ġparsnips": 4521,
      "Ġpickles": 4522,
      "Ġplums": 4523,
      "bought": 4524,
      "set": 4525,
      "Ġchutney": 4526,
      "chino": 4527,
      "Ġmarinated": 4528,
      "Ġdiscarding": 4529,
      "oultry": 4530,
      "And": 4531,
      "mold": 4532,
      "Ġmirin": 4533,
      "ĠCon": 4534,
      "Crumble": 4535,
      "ĠGranny": 4536,
      "Ġfettuccine": 4537,
      "Ġlinguine": 4538,
      "Ġflax": 4539,
      "Ġsplash": 4540,
      "ĠFilling": 4541,
      "aps": 4542,
      "ĠMiracle": 4543,
      "Cl": 4544,
      "ints": 4545,
      "uty": 4546,
      "Ġtoothpicks": 4547,
      "ograp": 4548,
      "Ġflavoring": 4549,
      "Ġsnipped": 4550,
      "ĠCanned": 4551,
      "Ġdistribute": 4552,
      "Ġresealable": 4553,
      "ĠLay": 4554,
      "ĠCrushed": 4555,
      "ĠSandwiches": 4556,
      "Chopped": 4557,
      "Ġtester": 4558,
      "Ġbutton": 4559,
      "aya": 4560,
      "Ġfryer": 4561,
      "hotograp": 4562,
      "put": 4563,
      "ĠSemi": 4564,
      "Ġnori": 4565,
      "Ġdef": 4566,
      "ĠHeavy": 4567,
      "Ġprovided": 4568,
      "ashioned": 4569,
      "ĠPeas": 4570,
      "ummy": 4571,
      "ison": 4572,
      "Ġbeater": 4573,
      "ĠNe": 4574,
      "Ġswiss": 4575,
      "Recipe": 4576,
      "Ġsuper": 4577,
      "Before": 4578,
      "Ġtakes": 4579,
      "ĠMore": 4580,
      "ĠSmith": 4581,
      "Ġmust": 4582,
      "ĠPaste": 4583,
      "Ġrich": 4584,
      "ĠArtichoke": 4585,
      "We": 4586,
      "Ġlink": 4587,
      "ounts": 4588,
      "Ġpinto": 4589,
      "Ġsprinkles": 4590,
      "Ġscrubbed": 4591,
      "hotograph": 4592,
      "aschino": 4593,
      "redo": 4594,
      "raight": 4595,
      "ĠDrained": 4596,
      "ĠZesty": 4597,
      "Ġau": 4598,
      "Ġplenty": 4599,
      "itas": 4600,
      "Ġrecommend": 4601,
      "ĠMed": 4602,
      "Ġnearly": 4603,
      "reat": 4604,
      "asing": 4605,
      "ung": 4606,
      "ĠBRE": 4607,
      "ĠToasted": 4608,
      "ahini": 4609,
      "Ġliners": 4610,
      "ati": 4611,
      "ical": 4612,
      "Ġmine": 4613,
      "ĠFrit": 4614,
      "ĠBrownies": 4615,
      "ĠSeeds": 4616,
      "fredo": 4617,
      "Ġremainder": 4618,
      "Also": 4619,
      "retch": 4620,
      "elli": 4621,
      "ĠRicotta": 4622,
      "grass": 4623,
      "black": 4624,
      "ept": 4625,
      "ĠThyme": 4626,
      "Ġpretty": 4627,
      "Ġweed": 4628,
      "ĠCakes": 4629,
      "ĠChile": 4630,
      "Ġstored": 4631,
      "Ġbright": 4632,
      "fit": 4633,
      "large": 4634,
      "Ġfair": 4635,
      "Photograph": 4636,
      "SEN": 4637,
      "Ġbod": 4638,
      "Ġsafe": 4639,
      "Ġfrit": 4640,
      "Ġori": 4641,
      "ible": 4642,
      "Ġtails": 4643,
      "Ġsor": 4644,
      "Ġinternal": 4645,
      "uffalo": 4646,
      "ĠMayo": 4647,
      "Ġminiature": 4648,
      "han": 4649,
      "until": 4650,
      "ĠSpiced": 4651,
      "Ġkeeping": 4652,
      "ibs": 4653,
      "Ġtall": 4654,
      "anache": 4655,
      "Ġbrownies": 4656,
      "Ġproof": 4657,
      "Ġworking": 4658,
      "Ġgrm": 4659,
      "Ġflours": 4660,
      "Ġthroughout": 4661,
      "Ġagave": 4662,
      "Ġgoing": 4663,
      "Ġpreferred": 4664,
      "Ġpipe": 4665,
      "ago": 4666,
      "Ġslide": 4667,
      "Ġdredge": 4668,
      "ĠCub": 4669,
      "Ġsteel": 4670,
      "ĠYour": 4671,
      "Ġpints": 4672,
      "Ġdecorate": 4673,
      "Ġtested": 4674,
      "gn": 4675,
      "Ġliber": 4676,
      "Ġloose": 4677,
      "Ġamounts": 4678,
      "ĠCracker": 4679,
      "Ġsomet": 4680,
      "Vari": 4681,
      "ero": 4682,
      "Ġok": 4683,
      "ĠMake": 4684,
      "Ġyoure": 4685,
      "Thinly": 4686,
      "occhi": 4687,
      "Ġelastic": 4688,
      "ĠUnsalted": 4689,
      "Ġbottled": 4690,
      "ukon": 4691,
      "Ġlemongrass": 4692,
      "ĠPeach": 4693,
      "Ġmoisten": 4694,
      "stitute": 4695,
      "minced": 4696,
      "Lift": 4697,
      "Ġsugg": 4698,
      "immers": 4699,
      "ĠWalnuts": 4700,
      "ĠLine": 4701,
      "Ġcornbread": 4702,
      "Ġblending": 4703,
      "Measure": 4704,
      "nocchi": 4705,
      "ĠThis": 4706,
      "ĠGlaze": 4707,
      "Ġemuls": 4708,
      "AM": 4709,
      "ki": 4710,
      "Ġstraight": 4711,
      "banzo": 4712,
      "Ġintact": 4713,
      "Ass": 4714,
      "etchup": 4715,
      "iping": 4716,
      "epending": 4717,
      "Ġneck": 4718,
      "Ġposition": 4719,
      "Ġmousse": 4720,
      "isquick": 4721,
      "ĠBeat": 4722,
      "ĠLen": 4723,
      "Ġpackets": 4724,
      "ĠEssence": 4725,
      "Ġgrinder": 4726,
      "abocha": 4727,
      "CH": 4728,
      "pour": 4729,
      "ĠKitchen": 4730,
      "Ġmethod": 4731,
      "Open": 4732,
      "Ġpierced": 4733,
      "Ġsegments": 4734,
      "Ġsushi": 4735,
      "ĠChips": 4736,
      "Ġappear": 4737,
      "VOO": 4738,
      "fine": 4739,
      "Ġi": 4740,
      "Ġspo": 4741,
      "ĠCol": 4742,
      "ĠLowfat": 4743,
      "Ġ170": 4744,
      "Ġslits": 4745,
      "ĠX": 4746,
      "Ġspace": 4747,
      "Ġstewed": 4748,
      "ures": 4749,
      "irst": 4750,
      "ĠMashed": 4751,
      "Ġquality": 4752,
      "Grate": 4753,
      "Ġmush": 4754,
      "ĠFudge": 4755,
      "'ve": 4756,
      "Ġkept": 4757,
      "Ġcling": 4758,
      "Ġwaffle": 4759,
      "Ġlids": 4760,
      "ĠThick": 4761,
      "Invert": 4762,
      "more": 4763,
      "Ġven": 4764,
      "ada": 4765,
      "Ġmasher": 4766,
      "embran": 4767,
      "Ġcombination": 4768,
      "Ġcare": 4769,
      "ĠTri": 4770,
      "ĠVeggie": 4771,
      "Ġhoisin": 4772,
      "etiz": 4773,
      "ipment": 4774,
      "ĠInd": 4775,
      "ĠPieces": 4776,
      "ĠRomano": 4777,
      "Ġpage": 4778,
      "Ġrye": 4779,
      "Ġletting": 4780,
      "here": 4781,
      "Ġpatter": 4782,
      "Ġsave": 4783,
      "Ġovercook": 4784,
      "Ġclam": 4785,
      "ĠRoma": 4786,
      "Ġbed": 4787,
      "aped": 4788,
      "ĠToast": 4789,
      "onge": 4790,
      "Ġfudge": 4791,
      "ĠDill": 4792,
      "remove": 4793,
      "UD": 4794,
      "ever": 4795,
      "ĠWalnut": 4796,
      "arter": 4797,
      "ĠSkin": 4798,
      "Ġfinal": 4799,
      "ĠGruyere": 4800,
      "ĠAlmonds": 4801,
      "Ġvers": 4802,
      "usc": 4803,
      "ills": 4804,
      "ĠTex": 4805,
      "Ġfingert": 4806,
      "ummus": 4807,
      "gur": 4808,
      "Ġrusset": 4809,
      "Ġvol": 4810,
      "Ġrapid": 4811,
      "Ġthicker": 4812,
      "Ġsealed": 4813,
      "man": 4814,
      "Ġcy": 4815,
      "Ġmembran": 4816,
      "ĠCayenne": 4817,
      "ĠOli": 4818,
      "Ġsnack": 4819,
      "Ġvermouth": 4820,
      "Decorate": 4821,
      "ged": 4822,
      "rowd": 4823,
      "ĠBeer": 4824,
      "Ġpattern": 4825,
      "Ġrectangles": 4826,
      "zola": 4827,
      "Ġworcestershire": 4828,
      "ety": 4829,
      "ĠMI": 4830,
      "Ġassor": 4831,
      "owdered": 4832,
      "Ġassorted": 4833,
      "Ġtequila": 4834,
      "ĠApricot": 4835,
      "Ġfairly": 4836,
      "but": 4837,
      "ĠCold": 4838,
      "ĠSummer": 4839,
      "ĠKN": 4840,
      "Ġfollowed": 4841,
      "Ġtrial": 4842,
      "ĠBREAK": 4843,
      "Ġbird": 4844,
      "orgon": 4845,
      "lices": 4846,
      "Ġsmell": 4847,
      "ĠMy": 4848,
      "Ġpreparing": 4849,
      "ference": 4850,
      "SP": 4851,
      "zing": 4852,
      "irt": 4853,
      "venly": 4854,
      "Ġmandarin": 4855,
      "orgonzola": 4856,
      "Pull": 4857,
      "land": 4858,
      "Ġpoultry": 4859,
      "rare": 4860,
      "ĠKetchup": 4861,
      "ĠPlain": 4862,
      "Clean": 4863,
      "igg": 4864,
      "Ġear": 4865,
      "ĠSriracha": 4866,
      "Ġrefried": 4867,
      "Ġprun": 4868,
      "19": 4869,
      "CK": 4870,
      "Crush": 4871,
      "Lemon": 4872,
      "STONE": 4873,
      "ĠBrussels": 4874,
      "Ġreal": 4875,
      "Ġflank": 4876,
      "ĠKosher": 4877,
      "Ġpicked": 4878,
      "ĠEnchilad": 4879,
      "Pl": 4880,
      "inds": 4881,
      "Ġale": 4882,
      "ado": 4883,
      "ĠBut": 4884,
      "ĠBrand": 4885,
      "Special": 4886,
      "ĠHal": 4887,
      "Ġsquid": 4888,
      "ĠBiscuits": 4889,
      "aes": 4890,
      "chio": 4891,
      "Ġthickest": 4892,
      "Shred": 4893,
      "Ġtomatillos": 4894,
      "ĠServe": 4895,
      "Car": 4896,
      "Position": 4897,
      "Ġour": 4898,
      "Ġsteady": 4899,
      "Ġpoblano": 4900,
      "ĠBREAKSTONE": 4901,
      "Ġparing": 4902,
      "Ġdaikon": 4903,
      "umbled": 4904,
      "Ġchoy": 4905,
      "ĠBri": 4906,
      "Ġfries": 4907,
      "ito": 4908,
      "Ġhad": 4909,
      "ĠPut": 4910,
      "Ġending": 4911,
      "Ġdiscarded": 4912,
      "Ġburner": 4913,
      "Alternatively": 4914,
      "Ġensure": 4915,
      "Ġliberally": 4916,
      "Sw": 4917,
      "antain": 4918,
      "ĠGrnd": 4919,
      "Ġfolding": 4920,
      "Ġcrepes": 4921,
      "ĠPlus": 4922,
      "tob": 4923,
      "urry": 4924,
      "ready": 4925,
      "Ġgloss": 4926,
      "drained": 4927,
      "val": 4928,
      "yes": 4929,
      "aban": 4930,
      "Ġcannot": 4931,
      "ubstitute": 4932,
      "Ġsauerkraut": 4933,
      "Ġvolume": 4934,
      "icchio": 4935,
      "adill": 4936,
      "Ġfrost": 4937,
      "Ġslaw": 4938,
      "Ġshaved": 4939,
      "Ġoriginal": 4940,
      "AD": 4941,
      "Ġsco": 4942,
      "ĠCom": 4943,
      "ĠIs": 4944,
      "napper": 4945,
      "hee": 4946,
      "ĠFavorite": 4947,
      "Ġcuts": 4948,
      "Ġweigh": 4949,
      "Ġread": 4950,
      "ĠTea": 4951,
      "ĠMarshmallow": 4952,
      "ĠButtermilk": 4953,
      "Ġcalled": 4954,
      "ĠBerry": 4955,
      "ĠDel": 4956,
      "bur": 4957,
      "Ġdrum": 4958,
      "ĠRibs": 4959,
      "Ġrising": 4960,
      "Ġpiping": 4961,
      "amels": 4962,
      "serve": 4963,
      "Ġtruffle": 4964,
      "ĠAND": 4965,
      "Sm": 4966,
      "hi": 4967,
      "ĠDelicious": 4968,
      "Ġwere": 4969,
      "Optional": 4970,
      "Ġporcini": 4971,
      "ĠOlives": 4972,
      "Ġatop": 4973,
      "Ġsim": 4974,
      "Ġfan": 4975,
      "ĠBur": 4976,
      "120": 4977,
      "Ġalternating": 4978,
      "May": 4979,
      "Ġct": 4980,
      "ernel": 4981,
      "Ġpeeler": 4982,
      "ĠGranulated": 4983,
      "Ġtapioca": 4984,
      "UDSEN": 4985,
      "ĠKNUDSEN": 4986,
      "190": 4987,
      "Ġgerm": 4988,
      "ĠGel": 4989,
      "ĠSkillet": 4990,
      "Ġbok": 4991,
      "Ġmove": 4992,
      "otal": 4993,
      "Mo": 4994,
      "quet": 4995,
      "ĠDessert": 4996,
      "Ġnonreactive": 4997,
      "Ġsnap": 4998,
      "ĠCrackers": 4999,
      "IP": 5000,
      "ouille": 5001,
      "Ġgrits": 5002,
      "ĠBraised": 5003,
      "ĠDouble": 5004,
      "Ġupper": 5005,
      "Ġprovolone": 5006,
      "Ġhens": 5007,
      "Calories": 5008,
      "aut": 5009,
      "Ġdeli": 5010,
      "ĠCand": 5011,
      "Ġcools": 5012,
      "Ġmeats": 5013,
      "cans": 5014,
      "iest": 5015,
      "Ġmaraschino": 5016,
      "ĠJu": 5017,
      "ĠCups": 5018,
      "oud": 5019,
      "Ġcann": 5020,
      "Ġrose": 5021,
      "ĠRem": 5022,
      "green": 5023,
      "Ġendive": 5024,
      "ĠFlakes": 5025,
      "Ġgrapeseed": 5026,
      "cing": 5027,
      "ĠCookie": 5028,
      "Reheat": 5029,
      "ĠShell": 5030,
      "wrap": 5031,
      "alve": 5032,
      "ĠSlow": 5033,
      "ĠMarinated": 5034,
      "Frost": 5035,
      "rist": 5036,
      "itz": 5037,
      "Ġ22": 5038,
      "IL": 5039,
      "Try": 5040,
      "recipe": 5041,
      "utes": 5042,
      "Ġpeppermint": 5043,
      "ĠOys": 5044,
      "cones": 5045,
      "Ġholds": 5046,
      "Ġelbow": 5047,
      "Ġpretzels": 5048,
      "gnac": 5049,
      "Gener": 5050,
      "Ġpestle": 5051,
      "anger": 5052,
      "ĠPer": 5053,
      "ĠCreole": 5054,
      "Ġfingertips": 5055,
      "De": 5056,
      "Ġoat": 5057,
      "Ġchickens": 5058,
      "ĠJo": 5059,
      "ĠGarnish": 5060,
      "shaped": 5061,
      "rew": 5062,
      "Ġstor": 5063,
      "ĠRot": 5064,
      "Ġtort": 5065,
      "Ġchunk": 5066,
      "ĠQuinoa": 5067,
      "rito": 5068,
      "17": 5069,
      "mati": 5070,
      "Ġbaste": 5071,
      "etwork": 5072,
      "ĠReal": 5073,
      "Ġtastes": 5074,
      "nier": 5075,
      "vals": 5076,
      "Ġkiw": 5077,
      "Close": 5078,
      "ect": 5079,
      "ml": 5080,
      "alorie": 5081,
      "elish": 5082,
      "arty": 5083,
      "ĠReduced": 5084,
      "Ġinsert": 5085,
      "arsala": 5086,
      "ico": 5087,
      "vegetable": 5088,
      "adam": 5089,
      "ĠJello": 5090,
      "Ġcob": 5091,
      "ĠSouth": 5092,
      "Ġseems": 5093,
      "basa": 5094,
      "AS": 5095,
      "Per": 5096,
      "over": 5097,
      "rapped": 5098,
      "preheat": 5099,
      "rick": 5100,
      "Ġteriyaki": 5101,
      "Ġfrench": 5102,
      "Ġchip": 5103,
      "ĠBlend": 5104,
      "ĠPear": 5105,
      "Ġaccompan": 5106,
      "Ġessence": 5107,
      "amame": 5108,
      "ĠNuts": 5109,
      "Ġalongside": 5110,
      "aintain": 5111,
      "ĠSmoothie": 5112,
      "Have": 5113,
      "mas": 5114,
      "Ġrunny": 5115,
      "Extra": 5116,
      "olina": 5117,
      "ĠORE": 5118,
      "Split": 5119,
      "artini": 5120,
      "Ġdepend": 5121,
      "ĠTortilla": 5122,
      "then": 5123,
      "Ġhollow": 5124,
      "Ġcontinuously": 5125,
      "Ġtaking": 5126,
      "Ġunflavored": 5127,
      "Ġnoodle": 5128,
      "Ġkernel": 5129,
      "ĠOre": 5130,
      "Ġgranola": 5131,
      "Ġequipment": 5132,
      "Ġleftovers": 5133,
      "Ġclosed": 5134,
      "Ġbody": 5135,
      "ogh": 5136,
      "wy": 5137,
      "Ġsummer": 5138,
      "ĠSlices": 5139,
      ".),": 5140,
      "Ġsteep": 5141,
      "Ġevapor": 5142,
      "ĠLettuce": 5143,
      "adamia": 5144,
      "ilar": 5145,
      "iento": 5146,
      "Ġpreference": 5147,
      "ĠNetwork": 5148,
      "ĠQues": 5149,
      "ĠMeatloaf": 5150,
      "Ġglossy": 5151,
      "Ġtent": 5152,
      "lemon": 5153,
      "elle": 5154,
      "Ġguacamole": 5155,
      "Ġstain": 5156,
      "Ġstretch": 5157,
      "Ġspec": 5158,
      "Ġkneading": 5159,
      "hol": 5160,
      "Ġrough": 5161,
      "quality": 5162,
      "ĠEVOO": 5163,
      "Quick": 5164,
      "ĠGluten": 5165,
      "ĠBalls": 5166,
      "Halve": 5167,
      "Ġmg": 5168,
      "Ġapprox": 5169,
      "ĠMixed": 5170,
      "Ġrotating": 5171,
      "Ġversion": 5172,
      "onstick": 5173,
      "uns": 5174,
      "Ġstage": 5175,
      "ĠBag": 5176,
      "Ġhalibut": 5177,
      "atsup": 5178,
      "Ġpearl": 5179,
      "ĠMarinade": 5180,
      "ba": 5181,
      "di": 5182,
      "Ġimmers": 5183,
      "Ġshiny": 5184,
      "ĠCloves": 5185,
      "aesar": 5186,
      "serving": 5187,
      "ests": 5188,
      "Ġphot": 5189,
      "ĠTr": 5190,
      "Ġbrew": 5191,
      "First": 5192,
      "Punch": 5193,
      "ek": 5194,
      "alia": 5195,
      "Ġganache": 5196,
      "Ġsav": 5197,
      "ĠWild": 5198,
      "ĠJell": 5199,
      "iffon": 5200,
      "Ġempty": 5201,
      "Ġtriangle": 5202,
      "ILL": 5203,
      "diced": 5204,
      "tto": 5205,
      "Ġten": 5206,
      "icum": 5207,
      "Ġveg": 5208,
      "Cooking": 5209,
      "Ġmeatloaf": 5210,
      "ĠCrumbs": 5211,
      "adillas": 5212,
      "ĠServing": 5213,
      "ĠPort": 5214,
      "ĠMas": 5215,
      "ĠBarrel": 5216,
      "Ġvariety": 5217,
      "ossom": 5218,
      "ĠStick": 5219,
      "Ġmanufacturer": 5220,
      "Ġtahini": 5221,
      "illets": 5222,
      "Ġrow": 5223,
      "Ġclub": 5224,
      "Ġprof": 5225,
      "Ġ90": 5226,
      "Ġoppos": 5227,
      "ielbasa": 5228,
      "oghurt": 5229,
      "ceed": 5230,
      "irm": 5231,
      "ĠTA": 5232,
      "eath": 5233,
      "Ġlogs": 5234,
      "Grind": 5235,
      "Coarsely": 5236,
      "Ġangel": 5237,
      "sch": 5238,
      "Ġparmigiano": 5239,
      "ĠHigh": 5240,
      "ortant": 5241,
      "peci": 5242,
      "Ġpinches": 5243,
      "shredded": 5244,
      "Finish": 5245,
      "RY": 5246,
      "iago": 5247,
      "arind": 5248,
      "Ġcourse": 5249,
      "Ġdefrost": 5250,
      "Gl": 5251,
      "iness": 5252,
      "Ġunbaked": 5253,
      "ĠCap": 5254,
      "Ġencl": 5255,
      "ĠCocoa": 5256,
      "UM": 5257,
      "atic": 5258,
      "Ġshanks": 5259,
      "tata": 5260,
      "Ġtran": 5261,
      "Ġsponge": 5262,
      "ĠMirin": 5263,
      "erel": 5264,
      "Ġharden": 5265,
      "Ġstrained": 5266,
      "heit": 5267,
      "ĠDark": 5268,
      "Ġupside": 5269,
      "ĠGreens": 5270,
      "Ġequally": 5271,
      "cheese": 5272,
      "Finally": 5273,
      "finely": 5274,
      "Ġcitrus": 5275,
      "Ġsouffle": 5276,
      "Ġuncover": 5277,
      "Ġplantain": 5278,
      "ĠSpring": 5279,
      "ĠCrisco": 5280,
      "Ġbreakfast": 5281,
      "tobello": 5282,
      "ĠCauliflower": 5283,
      "ĠBisquick": 5284,
      "arent": 5285,
      "Ġslit": 5286,
      "Protein": 5287,
      "ĠFoods": 5288,
      "iar": 5289,
      "inches": 5290,
      "Ġfond": 5291,
      "ĠHealthy": 5292,
      "aur": 5293,
      "abe": 5294,
      "Ġeating": 5295,
      "oupe": 5296,
      "soft": 5297,
      "Ġgoes": 5298,
      "bler": 5299,
      "Ġworry": 5300,
      "Ġimportant": 5301,
      "kosher": 5302,
      "ues": 5303,
      "uces": 5304,
      "Ġstay": 5305,
      "ĠRum": 5306,
      "third": 5307,
      "Ġprotein": 5308,
      "ontina": 5309,
      "ĠSeasoned": 5310,
      "rising": 5311,
      "Ġmushy": 5312,
      "Lime": 5313,
      "arro": 5314,
      "abs": 5315,
      "lock": 5316,
      "Ġberry": 5317,
      "Ġattached": 5318,
      "Ġdogs": 5319,
      "Ġhusks": 5320,
      "Ġfound": 5321,
      "pote": 5322,
      "ĠCitrus": 5323,
      "ĠMom": 5324,
      "Ġturnips": 5325,
      "Ġknow": 5326,
      "Ġfilm": 5327,
      "Ġveggie": 5328,
      "Ġradicchio": 5329,
      "Pipe": 5330,
      "Ġzested": 5331,
      "Ġdashi": 5332,
      "Ġprunes": 5333,
      "right": 5334,
      "ĠSlaw": 5335,
      "ĠChick": 5336,
      "Ġscraps": 5337,
      "Ġrisotto": 5338,
      "mar": 5339,
      "Ġwing": 5340,
      "Ġfamily": 5341,
      "ĠSlice": 5342,
      "ĠRemove": 5343,
      "ĠRelish": 5344,
      "mini": 5345,
      "round": 5346,
      "Ġlowest": 5347,
      "Ġproduct": 5348,
      "Ġevaporates": 5349,
      "bor": 5350,
      "may": 5351,
      "Ġeyes": 5352,
      "amen": 5353,
      "aretto": 5354,
      "Ġlots": 5355,
      "Ġserrated": 5356,
      "Ġtransp": 5357,
      "acc": 5358,
      "redient": 5359,
      "cohol": 5360,
      "Ġproper": 5361,
      "ĠMarnier": 5362,
      "mine": 5363,
      "Ġgnocchi": 5364,
      "Ġlim": 5365,
      "irsch": 5366,
      "ĠSodium": 5367,
      "Ġbuttersc": 5368,
      "Ġkatakuriko": 5369,
      "ĠChrist": 5370,
      "ĠSkinless": 5371,
      "sert": 5372,
      "Ġmicrow": 5373,
      "aces": 5374,
      "Ġgratin": 5375,
      "ĠMade": 5376,
      "ĠTortillas": 5377,
      "ĠGolden": 5378,
      "Slide": 5379,
      "Ġbutterscotch": 5380,
      "Black": 5381,
      "ĠFennel": 5382,
      "ĠMor": 5383,
      "Ġliver": 5384,
      "Ġpoach": 5385,
      "ĠYukon": 5386,
      "Ġbulgur": 5387,
      "abanero": 5388,
      "Ġsimilar": 5389,
      "ĠGelatin": 5390,
      "Com": 5391,
      "Ġfast": 5392,
      "Ġinc": 5393,
      "Ġcoll": 5394,
      "Ġjumbo": 5395,
      "ople": 5396,
      "Ġcorners": 5397,
      "Ġtear": 5398,
      "oys": 5399,
      "ĠShall": 5400,
      "ĠCupcakes": 5401,
      "Ġcountry": 5402,
      "Ġbu": 5403,
      "ĠBo": 5404,
      "ĠMousse": 5405,
      "ĠNoodle": 5406,
      "ĠWhisk": 5407,
      "Ġwonton": 5408,
      "ĠGravy": 5409,
      "Ġsilk": 5410,
      "Ġwatch": 5411,
      "Ġ(.": 5412,
      "....": 5413,
      "Ġsomew": 5414,
      "Two": 5415,
      "Ġtrout": 5416,
      "Ġcart": 5417,
      "rozen": 5418,
      "Ġblanch": 5419,
      "Ġshaped": 5420,
      "Ġsuggest": 5421,
      "Ġphoto": 5422,
      "Ġinf": 5423,
      "Ġopposite": 5424,
      "FOR": 5425,
      "OY": 5426,
      "Ġtbs": 5427,
      "amble": 5428,
      "Ġshimmer": 5429,
      "Ġlemonade": 5430,
      "ĠPecans": 5431,
      "Ġopening": 5432,
      "ĠGlazed": 5433,
      "Ġcapsicum": 5434,
      "Ġstainless": 5435,
      "21": 5436,
      "Sodium": 5437,
      "ua": 5438,
      "Ġster": 5439,
      "reggiano": 5440,
      "Ġdutch": 5441,
      "Ġgone": 5442,
      "Ġyet": 5443,
      "ĠPound": 5444,
      "Ġhealthy": 5445,
      "Ġrequired": 5446,
      "ĠFran": 5447,
      "ĠGood": 5448,
      "ĠLee": 5449,
      "ashi": 5450,
      "Ġrisen": 5451,
      "Ġspots": 5452,
      "Ġsink": 5453,
      "Ġpith": 5454,
      "Ġ36": 5455,
      "Ġwho": 5456,
      "ĠTop": 5457,
      "orning": 5458,
      "Ġneeds": 5459,
      "ambal": 5460,
      "romatic": 5461,
      "Sea": 5462,
      "hat": 5463,
      "Ġ150": 5464,
      "acao": 5465,
      "used": 5466,
      "Ġjello": 5467,
      "arkling": 5468,
      "Chocolate": 5469,
      "ĠChunky": 5470,
      "See": 5471,
      "wes": 5472,
      "wide": 5473,
      "Ġmm": 5474,
      "Ġchampagne": 5475,
      "Ġremains": 5476,
      "ĠWa": 5477,
      "anging": 5478,
      "Ġprick": 5479,
      "bons": 5480,
      "eb": 5481,
      "ral": 5482,
      "Ġlove": 5483,
      "Ġ19": 5484,
      "ĠCider": 5485,
      "ĠST": 5486,
      "ĠSherry": 5487,
      "Ġcane": 5488,
      "ĠOne": 5489,
      "ĠAng": 5490,
      "Ġscoops": 5491,
      "48": 5492,
      "Hold": 5493,
      "Tip": 5494,
      "ued": 5495,
      "Ġcatsup": 5496,
      "iluted": 5497,
      "Ġfacing": 5498,
      "Ġghee": 5499,
      "Ġlivers": 5500,
      "Ġalready": 5501,
      "ambled": 5502,
      "ĠAlfredo": 5503,
      "Ġlobsters": 5504,
      "OUP": 5505,
      "ĠLoaf": 5506,
      "Ġpimiento": 5507,
      "inter": 5508,
      "Ġgin": 5509,
      "Ġreached": 5510,
      "idalia": 5511,
      "ĠFamily": 5512,
      "ĠGRE": 5513,
      "Ġcaramels": 5514,
      "ĠSharp": 5515,
      "Ġpatted": 5516,
      "Ġtuck": 5517,
      "Ġoval": 5518,
      "Ġtoward": 5519,
      "renheit": 5520,
      "Ġcaramelize": 5521,
      "ahrenheit": 5522,
      "Ġtortellini": 5523,
      "Ġimmersion": 5524,
      "Ġtransparent": 5525,
      "mesh": 5526,
      "Ġforks": 5527,
      "quid": 5528,
      "pea": 5529,
      "orsels": 5530,
      "ĠSuper": 5531,
      "FF": 5532,
      "Ġcase": 5533,
      "ĠRef": 5534,
      "essional": 5535,
      "Ġsyrupy": 5536,
      "except": 5537,
      "Ġintervals": 5538,
      "Ġsuperfine": 5539,
      "MB": 5540,
      "hing": 5541,
      "Ġ+": 5542,
      "Ġvary": 5543,
      "Ġstanding": 5544,
      "Thread": 5545,
      "loins": 5546,
      "otti": 5547,
      "raising": 5548,
      "Ġpocket": 5549,
      "Ġsubmer": 5550,
      "Ġrepres": 5551,
      "Crack": 5552,
      "Loos": 5553,
      "Carbohydr": 5554,
      "Evenly": 5555,
      "lime": 5556,
      "Ġhulled": 5557,
      "Insert": 5558,
      "Ġjo": 5559,
      "ĠIr": 5560,
      "avory": 5561,
      "Grated": 5562,
      "kes": 5563,
      "reserve": 5564,
      "Ġtherefore": 5565,
      "Generously": 5566,
      "Ġprofessional": 5567,
      "Ġach": 5568,
      "Ġsimply": 5569,
      "orted": 5570,
      "ante": 5571,
      "Ġliter": 5572,
      "ĠCrumbled": 5573,
      "Crust": 5574,
      "Ġmounds": 5575,
      "My": 5576,
      "duty": 5577,
      "Ġcalories": 5578,
      "Ġthough": 5579,
      "ĠPam": 5580,
      "Ġthickly": 5581,
      "ĠBrie": 5582,
      "Mound": 5583,
      "cle": 5584,
      "fold": 5585,
      "pen": 5586,
      "Ġbreads": 5587,
      "ĠThin": 5588,
      "Ġsteaming": 5589,
      "INE": 5590,
      "ĠSauteed": 5591,
      "JOY": 5592,
      "bone": 5593,
      "Ġed": 5594,
      "Ġhar": 5595,
      "Ġsweetener": 5596,
      "crust": 5597,
      "ĠPastry": 5598,
      "ĠTenderloin": 5599,
      "ĠOREO": 5600,
      "iform": 5601,
      "ĠKatakuriko": 5602,
      "Ġswir": 5603,
      "Quickly": 5604,
      "Ġpou": 5605,
      "Ġmaintain": 5606,
      "itch": 5607,
      "Ġpeople": 5608,
      "Ġyoghurt": 5609,
      "Ġgreasing": 5610,
      "Ġscant": 5611,
      "Ġboned": 5612,
      "Ġhelps": 5613,
      "Ġcannellini": 5614,
      "Mince": 5615,
      "Po": 5616,
      "SS": 5617,
      "oved": 5618,
      "sour": 5619,
      "ĠRub": 5620,
      "Ġsalami": 5621,
      "Ġwhiskey": 5622,
      "abbit": 5623,
      "frying": 5624,
      "combine": 5625,
      "iter": 5626,
      "Ġflake": 5627,
      "Ġrather": 5628,
      "ĠOun": 5629,
      "bergine": 5630,
      "'m": 5631,
      "icated": 5632,
      "Ġdipped": 5633,
      "Ġcoleslaw": 5634,
      "arse": 5635,
      "Ġhalve": 5636,
      "ĠJam": 5637,
      "Ġmeant": 5638,
      "An": 5639,
      "Ġpercent": 5640,
      "Ġrectangular": 5641,
      "Ġthreads": 5642,
      "aurant": 5643,
      "But": 5644,
      "before": 5645,
      "onion": 5646,
      "Ġwipe": 5647,
      "Ġuniform": 5648,
      "Ġliquor": 5649,
      "awed": 5650,
      "Ġfun": 5651,
      "Ġtablespoonfuls": 5652,
      "Ġputting": 5653,
      "ĠSquares": 5654,
      "Dry": 5655,
      "Pass": 5656,
      "bu": 5657,
      "Ġsince": 5658,
      "Ġoverh": 5659,
      "ĠHouse": 5660,
      "Ġsourdough": 5661,
      "Ġchervil": 5662,
      "Filling": 5663,
      "Ġtrays": 5664,
      "Ġlinks": 5665,
      "Dot": 5666,
      "rog": 5667,
      "ĠCaesar": 5668,
      "Ġteaspoonfuls": 5669,
      "ĠMelt": 5670,
      "Ġcantal": 5671,
      "Ġdeglaze": 5672,
      "icama": 5673,
      "ĠLightly": 5674,
      "ĠIt": 5675,
      "Ġpickling": 5676,
      "azing": 5677,
      "ĠCurried": 5678,
      "Ġshoots": 5679,
      "Ġmal": 5680,
      "Ġfe": 5681,
      "ittle": 5682,
      "Into": 5683,
      "acho": 5684,
      "ĠMicrowave": 5685,
      "iblets": 5686,
      "Ġquail": 5687,
      "etizer": 5688,
      "Fiber": 5689,
      "Light": 5690,
      "Prick": 5691,
      "oven": 5692,
      "Ġcarving": 5693,
      "Flour": 5694,
      "Ġsomewhat": 5695,
      "Ġrepresentation": 5696,
      "small": 5697,
      "usel": 5698,
      "ĠDeli": 5699,
      "ĠHash": 5700,
      "Ġliquids": 5701,
      "oliday": 5702,
      "Ġtamarind": 5703,
      "seasoned": 5704,
      "bury": 5705,
      "DO": 5706,
      "Fried": 5707,
      "Ġpar": 5708,
      "apa": 5709,
      "ĠVer": 5710,
      "izzas": 5711,
      "neath": 5712,
      "roma": 5713,
      "ĠSA": 5714,
      "ĠPuree": 5715,
      "ĠMiso": 5716,
      "Ġskimm": 5717,
      "Ġtenders": 5718,
      "Ġresemble": 5719,
      "ĠSpray": 5720,
      "29": 5721,
      "RO": 5722,
      "Ġface": 5723,
      "Ġstre": 5724,
      "ĠPor": 5725,
      "Ġstores": 5726,
      "Ġtempe": 5727,
      "Garlic": 5728,
      "arbecued": 5729,
      "Ġpile": 5730,
      "issor": 5731,
      "Ġflipping": 5732,
      "ĠPenne": 5733,
      "ĠFahrenheit": 5734,
      "Ġchillies": 5735,
      "Ġdoor": 5736,
      "Ġunderneath": 5737,
      "Ġgrains": 5738,
      "Ġsmoker": 5739,
      "Sear": 5740,
      "lay": 5741,
      "Ġsnapper": 5742,
      "ĠRis": 5743,
      "Ġarea": 5744,
      "Ġmelting": 5745,
      "Ġturned": 5746,
      "oche": 5747,
      "derful": 5748,
      "ĠPanko": 5749,
      "Ġplaced": 5750,
      "Ġbrewed": 5751,
      "ĠChristmas": 5752,
      "ĠIrish": 5753,
      "Gather": 5754,
      "wine": 5755,
      "when": 5756,
      "ĠCocktail": 5757,
      "Ġhook": 5758,
      "Ġlumpy": 5759,
      "boil": 5760,
      "Ġaromatic": 5761,
      "orino": 5762,
      "Ġgum": 5763,
      "ĠBuffalo": 5764,
      "ĠTacos": 5765,
      "Ġseper": 5766,
      "Ġdep": 5767,
      "Ġcornflour": 5768,
      "Ġlayering": 5769,
      "Chicken": 5770,
      "Here": 5771,
      "Pack": 5772,
      "Serving": 5773,
      "Ġpt": 5774,
      "ities": 5775,
      "Ġlab": 5776,
      "Ġhom": 5777,
      "ĠCouscous": 5778,
      "ĠBowl": 5779,
      "ĠGratin": 5780,
      "ĠSteam": 5781,
      "Ġwasabi": 5782,
      "ĠSimply": 5783,
      "oda": 5784,
      "ĠStri": 5785,
      "Ġcomplete": 5786,
      "Ġbitter": 5787,
      "ĠButternut": 5788,
      "ĠCaramelized": 5789,
      "Ġrapidly": 5790,
      "ĠOyster": 5791,
      "Ġpri": 5792,
      "imum": 5793,
      "ĠGorgonzola": 5794,
      "Ġingredient": 5795,
      "ĠCob": 5796,
      "ones": 5797,
      "Ġpies": 5798,
      "Ġoils": 5799,
      "herbet": 5800,
      "ths": 5801,
      "Ġclumps": 5802,
      "Ġ165": 5803,
      "475": 5804,
      "frozen": 5805,
      "make": 5806,
      "arified": 5807,
      "Ġfeed": 5808,
      "ĠSavory": 5809,
      "Ġscissor": 5810,
      "Ġadditions": 5811,
      "Ġbouquet": 5812,
      "bq": 5813,
      "atel": 5814,
      "Ġsubstituted": 5815,
      "ĠNutmeg": 5816,
      "Ġsteril": 5817,
      "'d": 5818,
      "met": 5819,
      "rant": 5820,
      "ndered": 5821,
      "atfish": 5822,
      "Ġdot": 5823,
      "omme": 5824,
      "Ġgarbanzo": 5825,
      "ĠLite": 5826,
      "Ġscor": 5827,
      "Ġraisin": 5828,
      "ĠProtein": 5829,
      "NOTES": 5830,
      "abobs": 5831,
      "Ġkiwi": 5832,
      "Ġstrand": 5833,
      "adas": 5834,
      "ĠBE": 5835,
      "ĠTraditional": 5836,
      "Ġanything": 5837,
      "grnd": 5838,
      "Ġhock": 5839,
      "Ġfile": 5840,
      "Ġsalty": 5841,
      "ĠBurger": 5842,
      "ĠRaw": 5843,
      "Ġbasmati": 5844,
      "ĠPea": 5845,
      "hetta": 5846,
      "Cheese": 5847,
      "Ġsuperm": 5848,
      "Ġflowers": 5849,
      "dry": 5850,
      "ĠCas": 5851,
      "Ġthing": 5852,
      "ĠMe": 5853,
      "Ġcoats": 5854,
      "Ġgetting": 5855,
      "Ġtouching": 5856,
      "approximately": 5857,
      "oons": 5858,
      "Ġtoffee": 5859,
      "ĠPuff": 5860,
      "Ġshow": 5861,
      "thin": 5862,
      "Ġsoymilk": 5863,
      "Throw": 5864,
      "ĠDipping": 5865,
      "Cholesterol": 5866,
      "Ġbottles": 5867,
      "sides": 5868,
      "Ġcrowd": 5869,
      "Ġthinner": 5870,
      "Ġthumb": 5871,
      "Ġpecorino": 5872,
      "chocolate": 5873,
      "Ġtasty": 5874,
      "Ġomitting": 5875,
      "Fat": 5876,
      "Ġmass": 5877,
      "illy": 5878,
      "adian": 5879,
      "allow": 5880,
      "Ġrom": 5881,
      "izes": 5882,
      "Ġtenderloins": 5883,
      "Ġmarkets": 5884,
      "ĠPickled": 5885,
      "Assemble": 5886,
      "Ġscissors": 5887,
      "she": 5888,
      "ĠBO": 5889,
      "ĠFr": 5890,
      "Ġalcohol": 5891,
      "ĠGrease": 5892,
      "melted": 5893,
      "Ġshavings": 5894,
      "750": 5895,
      "Ġovermix": 5896,
      "ĠPowdered": 5897,
      "ĠPOUP": 5898,
      "ĠBELL": 5899,
      "Ġvis": 5900,
      "ĠIN": 5901,
      "Ġsoups": 5902,
      "meril": 5903,
      "ĠCornstarch": 5904,
      "Ġwilt": 5905,
      "Ġcarton": 5906,
      "Ġmeantime": 5907,
      "ĠPOUPON": 5908,
      "Push": 5909,
      "Ġcrimp": 5910,
      "Ġpoke": 5911,
      "ĠMarsala": 5912,
      "Ġpapaya": 5913,
      "ĠVal": 5914,
      "165": 5915,
      "ĠVeal": 5916,
      "Ġribbons": 5917,
      "Ġbundle": 5918,
      "Ġshimmering": 5919,
      "Ġgro": 5920,
      "ppers": 5921,
      "outhern": 5922,
      "Ġslight": 5923,
      "each": 5924,
      "ward": 5925,
      "Ġmartini": 5926,
      "sprinkle": 5927,
      "ĠTB": 5928,
      "ĠTur": 5929,
      "Ġplump": 5930,
      "ĠDrink": 5931,
      "ufch": 5932,
      "ĠIndian": 5933,
      "ĠRemoved": 5934,
      "ĠGREY": 5935,
      "Ġswirling": 5936,
      "Ġcantaloupe": 5937,
      "Ġbought": 5938,
      "Ġdevelop": 5939,
      "Ġfoods": 5940,
      "Ġblossom": 5941,
      "Sauce": 5942,
      "Zest": 5943,
      "Ġcal": 5944,
      "Ġtouc": 5945,
      "Ġrendered": 5946,
      "ĠGerm": 5947,
      "Ġsorbet": 5948,
      "ID": 5949,
      "baking": 5950,
      "Ġ32": 5951,
      "ĠBel": 5952,
      "Ġkalamata": 5953,
      "ĠChampagne": 5954,
      "Ġdoesnt": 5955,
      "Ġelse": 5956,
      "Tear": 5957,
      "Total": 5958,
      "icelli": 5959,
      "ĠGard": 5960,
      "Ġpouring": 5961,
      "Ġaccum": 5962,
      "ahl": 5963,
      "ĠProsciutto": 5964,
      "diameter": 5965,
      "ufchatel": 5966,
      "Tie": 5967,
      "long": 5968,
      "Ġmu": 5969,
      "ĠBourbon": 5970,
      "Ġcontinuing": 5971,
      "ĠRisotto": 5972,
      "170": 5973,
      "Dont": 5974,
      "rac": 5975,
      "Ġhome": 5976,
      "Ġkabocha": 5977,
      "ĠKale": 5978,
      "repared": 5979,
      "Ġramekin": 5980,
      "Ġchecking": 5981,
      "borio": 5982,
      "oysen": 5983,
      "Pick": 5984,
      "Ġvert": 5985,
      "Ġbelly": 5986,
      "Ġmain": 5987,
      "Ġinner": 5988,
      "roasted": 5989,
      "Ġkielbasa": 5990,
      "avender": 5991,
      "ĠBlackberry": 5992,
      "Roasted": 5993,
      "Ġreplace": 5994,
      "ĠTACO": 5995,
      "Ġdepth": 5996,
      "arole": 5997,
      "Ġgi": 5998,
      "ĠWings": 5999,
      "Ġvegan": 6000,
      "orthern": 6001,
      "Ġmasa": 6002,
      "ĠOreo": 6003,
      "Ġenclose": 6004,
      "Sugar": 6005,
      "ais": 6006,
      "Ġla": 6007,
      "Ġlady": 6008,
      "ctin": 6009,
      "Ġchoose": 6010,
      "ĠTime": 6011,
      "Ġable": 6012,
      "aper": 6013,
      "apia": 6014,
      "immered": 6015,
      "Ġsemolina": 6016,
      "Ġdecorative": 6017,
      "Ġpretzel": 6018,
      "Ġmotor": 6019,
      "bably": 6020,
      "filled": 6021,
      "aro": 6022,
      "Ġwid": 6023,
      "Ġtoaster": 6024,
      "unt": 6025,
      "Ġflam": 6026,
      "ĠPre": 6027,
      "ific": 6028,
      "ibb": 6029,
      "Ġcremini": 6030,
      "Ġmanner": 6031,
      "Soft": 6032,
      "Ġemulsified": 6033,
      "VER": 6034,
      "egg": 6035,
      "Ġbra": 6036,
      "Ġmorsels": 6037,
      "olog": 6038,
      "ĠSl": 6039,
      "ĠBites": 6040,
      "Ġfolded": 6041,
      "Ġsomething": 6042,
      "Ġvenison": 6043,
      "Ġsavory": 6044,
      "Pot": 6045,
      "lt": 6046,
      "ware": 6047,
      "Ġsparkling": 6048,
      "iforn": 6049,
      "ĠDog": 6050,
      "Ġangle": 6051,
      "Blanch": 6052,
      "Ġmesh": 6053,
      "Ġrabe": 6054,
      "Ġtwine": 6055,
      "Ġdijon": 6056,
      "Ġsizzle": 6057,
      "Ġmacadamia": 6058,
      "Eat": 6059,
      "IC": 6060,
      "UCE": 6061,
      "ias": 6062,
      "ĠUs": 6063,
      "ope": 6064,
      "bster": 6065,
      "Ġhandfuls": 6066,
      "iscotti": 6067,
      "Ġacid": 6068,
      "Ġchiffon": 6069,
      "aged": 6070,
      "Ġblueberry": 6071,
      "ĠMargarine": 6072,
      "ĠSeafood": 6073,
      "Ġmarked": 6074,
      "ifornia": 6075,
      "Ġunmold": 6076,
      "allions": 6077,
      "Ġbutterf": 6078,
      "Ġproceed": 6079,
      "iving": 6080,
      "Ġbasic": 6081,
      "Ġsauces": 6082,
      "Ġsizzling": 6083,
      "Deep": 6084,
      "PP": 6085,
      "made": 6086,
      "Ġbutcher": 6087,
      "Ġneat": 6088,
      "ĠPunch": 6089,
      "ĠLOW": 6090,
      "ĠIcing": 6091,
      "ĠJelly": 6092,
      "ĠRaisin": 6093,
      "tes": 6094,
      "your": 6095,
      "ĠCor": 6096,
      "Ġgrater": 6097,
      "available": 6098,
      "Ġquant": 6099,
      "ĠNotes": 6100,
      "Ġcrumbles": 6101,
      "Fluff": 6102,
      "Ġstarter": 6103,
      "Ġgarni": 6104,
      "Ġmotion": 6105,
      "Ġmicrowav": 6106,
      "iterran": 6107,
      "SH": 6108,
      "held": 6109,
      "Ġmug": 6110,
      "Ġbutt": 6111,
      "ĠHamburger": 6112,
      "degre": 6113,
      "Ġpurple": 6114,
      "ĠOunce": 6115,
      "Dried": 6116,
      "ĠSage": 6117,
      "Ġstovetop": 6118,
      "arfait": 6119,
      "iterranean": 6120,
      "fried": 6121,
      "Ġbass": 6122,
      "ĠPin": 6123,
      "ĠRag": 6124,
      "Ġcombining": 6125,
      "Ġedamame": 6126,
      "ĠGarden": 6127,
      "CLE": 6128,
      "Ġtend": 6129,
      "Ġpuls": 6130,
      "Ġescape": 6131,
      "Ġim": 6132,
      "Ġtanger": 6133,
      "rect": 6134,
      "Ġhair": 6135,
      "Ġmixes": 6136,
      "Ġdrying": 6137,
      "ĠArugula": 6138,
      "ĠEnchiladas": 6139,
      "Ġweights": 6140,
      "Ġstorage": 6141,
      "Ġromano": 6142,
      "Baste": 6143,
      "He": 6144,
      "No": 6145,
      "Ġpil": 6146,
      "ĠCountry": 6147,
      "Ġrele": 6148,
      "ĠBring": 6149,
      "ify": 6150,
      "Ġiceberg": 6151,
      "Ġsweat": 6152,
      "Ġmostly": 6153,
      "ĠProven": 6154,
      "ĠRais": 6155,
      "ĠGuacamole": 6156,
      "Ġdrumsticks": 6157,
      "Ġmallet": 6158,
      "ahlua": 6159,
      "bell": 6160,
      "rid": 6161,
      "ickory": 6162,
      "ĠChowder": 6163,
      "Ġsource": 6164,
      "Ġholding": 6165,
      "Ġdistributed": 6166,
      "Ġsterilized": 6167,
      "Hot": 6168,
      "Please": 6169,
      "nam": 6170,
      "Ġbuy": 6171,
      "Ġeff": 6172,
      "ĠSoda": 6173,
      "Ġspir": 6174,
      "Ġupright": 6175,
      "Ġglazed": 6176,
      "Ġscraped": 6177,
      "Ġworth": 6178,
      "ĠKitchens": 6179,
      "Ġlima": 6180,
      "IR": 6181,
      "Sal": 6182,
      "loc": 6183,
      "Ġcer": 6184,
      "Ġmalt": 6185,
      "pow": 6186,
      "ĠEmeril": 6187,
      "crisp": 6188,
      "Ġwonderful": 6189,
      "Ġcrystall": 6190,
      "Ġbow": 6191,
      "Ġpli": 6192,
      "iments": 6193,
      "Ġrabbit": 6194,
      "Variation": 6195,
      "uschetta": 6196,
      "\",": 6197,
      "App": 6198,
      "ik": 6199,
      "idd": 6200,
      "ĠTwo": 6201,
      "Ġjuicy": 6202,
      "keep": 6203,
      "Ġkeeps": 6204,
      "Ġslivers": 6205,
      "ĠAu": 6206,
      "Ġsteps": 6207,
      "Starting": 6208,
      "Ġrows": 6209,
      "Sour": 6210,
      "alle": 6211,
      "Ġgiblets": 6212,
      "aky": 6213,
      "ĠPop": 6214,
      "ĠBaker": 6215,
      "Ġexact": 6216,
      "Ġturnip": 6217,
      "Ġinsides": 6218,
      "corino": 6219,
      "ĠThree": 6220,
      "ierce": 6221,
      "Ġmangoes": 6222,
      "Ġcrystals": 6223,
      "ĠMediterranean": 6224,
      "36": 6225,
      "ging": 6226,
      "Ġcatch": 6227,
      "ene": 6228,
      "Ġea": 6229,
      "ĠMc": 6230,
      "Ġclaw": 6231,
      "Ġraise": 6232,
      "ordfish": 6233,
      "ĠHerbed": 6234,
      "ĠLobster": 6235,
      "Ġdisks": 6236,
      "Ġskimming": 6237,
      "Ġscorch": 6238,
      "Raise": 6239,
      "UFF": 6240,
      "alty": 6241,
      "ĠPolenta": 6242,
      "ĠON": 6243,
      "Ġblackened": 6244,
      "Ġprobably": 6245,
      "ĠVegan": 6246,
      "Unroll": 6247,
      "Ġcasings": 6248,
      "Begin": 6249,
      "accia": 6250,
      "aff": 6251,
      "depending": 6252,
      "sm": 6253,
      "Ġide": 6254,
      "Ġore": 6255,
      "Ġmorning": 6256,
      "Ġflatt": 6257,
      "ĠToss": 6258,
      "Ġstandard": 6259,
      "Ġrises": 6260,
      "Ġqueso": 6261,
      "ĠLentil": 6262,
      "ĠTruff": 6263,
      "arrow": 6264,
      "Ġchewy": 6265,
      "imi": 6266,
      "ignon": 6267,
      "ĠMelted": 6268,
      "Ġsilic": 6269,
      "Ġbeaters": 6270,
      "How": 6271,
      "Ġsherbet": 6272,
      "Ġsaucepot": 6273,
      "ĠBarbecued": 6274,
      "Ġcrunch": 6275,
      "ĠOR": 6276,
      "Ġpoached": 6277,
      "RACLE": 6278,
      "Ġindicated": 6279,
      "Ġhazelnut": 6280,
      "Ġceramic": 6281,
      "375": 6282,
      "drain": 6283,
      "iti": 6284,
      "asmine": 6285,
      "Ġ190": 6286,
      "Ġyours": 6287,
      "ĠCooker": 6288,
      "ĠCornbread": 6289,
      "Ġtriple": 6290,
      "freshly": 6291,
      "Saturated": 6292,
      "TER": 6293,
      "nog": 6294,
      "oise": 6295,
      "Ġci": 6296,
      "ili": 6297,
      "illo": 6298,
      "Ġopt": 6299,
      "ĠCanola": 6300,
      "ĠLayer": 6301,
      "ĠSteamed": 6302,
      "600": 6303,
      "warm": 6304,
      "atoni": 6305,
      "Ġyield": 6306,
      "ĠBoiled": 6307,
      "ĠAid": 6308,
      "ĠPecorino": 6309,
      "Thaw": 6310,
      "Ġrestaurant": 6311,
      "ĠBroil": 6312,
      "ĠSteaks": 6313,
      "ĠStrawberries": 6314,
      "Ġscaled": 6315,
      "ĠMIRACLE": 6316,
      "ĠRaisins": 6317,
      ".).": 6318,
      "extra": 6319,
      "go": 6320,
      "skim": 6321,
      "Ġchange": 6322,
      "ĠCustard": 6323,
      "ggy": 6324,
      "ocaccia": 6325,
      "Ġcurls": 6326,
      "Ġitself": 6327,
      "approx": 6328,
      "Pierce": 6329,
      "Ġhabanero": 6330,
      "ĠBund": 6331,
      "arsely": 6332,
      "ĠDish": 6333,
      "Ġblood": 6334,
      "OUR": 6335,
      "ĠSnack": 6336,
      "Ġdefrosted": 6337,
      "RU": 6338,
      "fle": 6339,
      "ialty": 6340,
      "pes": 6341,
      "reme": 6342,
      "ana": 6343,
      "stini": 6344,
      "ĠChutney": 6345,
      "ĠBeet": 6346,
      "they": 6347,
      "Ġeaten": 6348,
      "ĠBrick": 6349,
      "Ġfalling": 6350,
      "ĠRotel": 6351,
      "lind": 6352,
      "erie": 6353,
      "Ġfloat": 6354,
      "Ġjicama": 6355,
      "ĠFiber": 6356,
      "ĠMan": 6357,
      "Ġclarified": 6358,
      "Ġrid": 6359,
      "azelnut": 6360,
      "fitting": 6361,
      "illsbury": 6362,
      "Get": 6363,
      "ĠBoil": 6364,
      "whipped": 6365,
      "xtract": 6366,
      "Ġrotini": 6367,
      ",.": 6368,
      "cinnamon": 6369,
      "reau": 6370,
      "Ġhig": 6371,
      "Ġflo": 6372,
      "ĠMarshmallows": 6373,
      "Ġprior": 6374,
      "Water": 6375,
      "Ġ48": 6376,
      "Ġslurry": 6377,
      "IGHT": 6378,
      "Ġcylind": 6379,
      "Ġspecialty": 6380,
      ".\"": 6381,
      "VING": 6382,
      "Ġaroma": 6383,
      "Ġmd": 6384,
      "alth": 6385,
      "ĠSouthern": 6386,
      "heated": 6387,
      "Ġflower": 6388,
      "ĠTem": 6389,
      "ĠGrap": 6390,
      "Ġscallop": 6391,
      "Ġretain": 6392,
      "Ġtrimm": 6393,
      "Ġpockets": 6394,
      "Ġoverhang": 6395,
      "ĠStrips": 6396,
      "Ġdress": 6397,
      "ĠRib": 6398,
      "blend": 6399,
      "Ġ70": 6400,
      "ENJOY": 6401,
      "ĠPlum": 6402,
      "Ġassemb": 6403,
      "ĠVegetarian": 6404,
      "Ġpliable": 6405,
      "Give": 6406,
      "Tom": 6407,
      "ca": 6408,
      "Ġtoasts": 6409,
      "unk": 6410,
      "isps": 6411,
      "Ġpetal": 6412,
      "ĠPour": 6413,
      "ĠTeriyaki": 6414,
      "***": 6415,
      "Ġwheel": 6416,
      "Ġhusk": 6417,
      "ĠBeaten": 6418,
      "ĠTexas": 6419,
      "Ġplantains": 6420,
      "ĠGerman": 6421,
      "26": 6422,
      "bro": 6423,
      "aced": 6424,
      "Ġnorm": 6425,
      "ifting": 6426,
      "intreau": 6427,
      "added": 6428,
      "ĠPackage": 6429,
      "Ġmembranes": 6430,
      "Ġproperly": 6431,
      "Ġtouched": 6432,
      "Follow": 6433,
      "jo": 6434,
      "Ġbias": 6435,
      "Ġgives": 6436,
      "ĠFarm": 6437,
      "apted": 6438,
      "ĠLa": 6439,
      "Ġwaffles": 6440,
      "Ġbrioche": 6441,
      "Ġbulbs": 6442,
      "Ġpistachio": 6443,
      "ĠShells": 6444,
      "layer": 6445,
      "Its": 6446,
      "itted": 6447,
      "Ġnarrow": 6448,
      "ĠPatt": 6449,
      "ĠPrepare": 6450,
      "ĠCrunchy": 6451,
      "ropical": 6452,
      "ĠScallops": 6453,
      "Min": 6454,
      "Pan": 6455,
      "Rem": 6456,
      "TION": 6457,
      "Ġmult": 6458,
      "ĠBoysen": 6459,
      "Ġshown": 6460,
      "Ġsets": 6461,
      "Ġmoving": 6462,
      "ividing": 6463,
      "uckwheat": 6464,
      "ĠLemonade": 6465,
      "Ġscrambled": 6466,
      "Ġmatzo": 6467,
      "ĠJuiced": 6468,
      "Ġdepends": 6469,
      "Carbohydrates": 6470,
      "Soften": 6471,
      "Save": 6472,
      "lee": 6473,
      "ripe": 6474,
      "Ġyams": 6475,
      "ĠMa": 6476,
      "Ġplan": 6477,
      "orean": 6478,
      "Stack": 6479,
      "ĠDoll": 6480,
      "Ġcorned": 6481,
      "awai": 6482,
      "Ġboxes": 6483,
      "--------": 6484,
      "ouda": 6485,
      "Ġhummus": 6486,
      "ĠDumplings": 6487,
      "Ġcrabs": 6488,
      "ĠPeanuts": 6489,
      "Ġenchiladas": 6490,
      "Ġmandol": 6491,
      "ĠCashew": 6492,
      "85": 6493,
      "ARE": 6494,
      "Dough": 6495,
      "Ġtim": 6496,
      "ref": 6497,
      "ils": 6498,
      "Ġlines": 6499,
      "amin": 6500,
      "thirds": 6501,
      "Ġadhere": 6502,
      "Stop": 6503,
      "ĠQuiche": 6504,
      "ĠGranola": 6505,
      "ILLING": 6506,
      "Ġvisible": 6507,
      "110": 6508,
      "GE": 6509,
      "alance": 6510,
      "uscan": 6511,
      "Ġ275": 6512,
      "Ġspacing": 6513,
      "Ġ80": 6514,
      "rowroot": 6515,
      "Ġsweetness": 6516,
      "oulade": 6517,
      "Ġvermicelli": 6518,
      "Ġgroc": 6519,
      "iet": 6520,
      "mins": 6521,
      "Ġspot": 6522,
      "orange": 6523,
      "agas": 6524,
      "Ġvegetarian": 6525,
      "Ġstopping": 6526,
      "Ġnever": 6527,
      "Ġtheyre": 6528,
      "crushed": 6529,
      "Ġbreadcrumb": 6530,
      "isserie": 6531,
      "ĠScallop": 6532,
      "Loosen": 6533,
      "Orange": 6534,
      "cal": 6535,
      "atto": 6536,
      "Ġstuck": 6537,
      "ĠLean": 6538,
      "angy": 6539,
      "Ġamber": 6540,
      "Ġindentation": 6541,
      "Ġtruffles": 6542,
      "Deglaze": 6543,
      "Ġstrands": 6544,
      "ng": 6545,
      "sk": 6546,
      "Ġfres": 6547,
      "enter": 6548,
      "owel": 6549,
      "ako": 6550,
      "Ġhapp": 6551,
      "Ġrecommended": 6552,
      "isee": 6553,
      "Ġscum": 6554,
      "ĠNeed": 6555,
      "ĠSprouts": 6556,
      "ingersn": 6557,
      "ritos": 6558,
      "ĠGraham": 6559,
      "ĠCalifornia": 6560,
      "Watch": 6561,
      "cured": 6562,
      "ira": 6563,
      "uction": 6564,
      "Ġpizzas": 6565,
      "ĠScr": 6566,
      "ĠBuns": 6567,
      "ĠDuck": 6568,
      "Ġsprings": 6569,
      "cayenne": 6570,
      "risp": 6571,
      "vable": 6572,
      "Ġ@": 6573,
      "roof": 6574,
      "ribs": 6575,
      "Ġsuit": 6576,
      "Ġgrass": 6577,
      "ĠRound": 6578,
      "ĠGo": 6579,
      "Ġshel": 6580,
      "ĠShake": 6581,
      "atta": 6582,
      "Ġevaporate": 6583,
      "Ġmeasured": 6584,
      "ĠPancake": 6585,
      "beaten": 6586,
      "Ġokay": 6587,
      "Swirl": 6588,
      "Moisten": 6589,
      "Ġfondue": 6590,
      "fort": 6591,
      "Ġmes": 6592,
      "Ġshuck": 6593,
      "ĠKahlua": 6594,
      "ĠGrill": 6595,
      "ĠGreat": 6596,
      "fectioner": 6597,
      "Ġhowever": 6598,
      "Ġcaviar": 6599,
      "Ġfilets": 6600,
      "Ġchiffonade": 6601,
      "RI": 6602,
      "four": 6603,
      "uzu": 6604,
      "vanilla": 6605,
      "Ġsubs": 6606,
      "ĠFour": 6607,
      "ĠFrom": 6608,
      "ĠHoliday": 6609,
      "Nonstick": 6610,
      "Scr": 6611,
      "dy": 6612,
      "duct": 6613,
      "tures": 6614,
      "Ġpair": 6615,
      "Ġdate": 6616,
      "Ġflan": 6617,
      "Ġspare": 6618,
      "lied": 6619,
      "ĠRite": 6620,
      "ĠChar": 6621,
      "Stirring": 6622,
      "Ġtowards": 6623,
      "ĠCandy": 6624,
      "Ġaccumulated": 6625,
      "aan": 6626,
      "uan": 6627,
      "Ġsound": 6628,
      "arkets": 6629,
      "chamel": 6630,
      "urbed": 6631,
      "ĠFRE": 6632,
      "Ġdesire": 6633,
      "eyed": 6634,
      "Ġsupermarkets": 6635,
      "ME": 6636,
      "anish": 6637,
      "Ġdividing": 6638,
      "adilla": 6639,
      "ĠTuscan": 6640,
      "Ġexp": 6641,
      "efto": 6642,
      "eproof": 6643,
      "Ġfront": 6644,
      "rawfish": 6645,
      "Ġpassing": 6646,
      "Ġbundt": 6647,
      "ĠWraps": 6648,
      "Ġseperate": 6649,
      "chicken": 6650,
      "isturbed": 6651,
      "Ġcircular": 6652,
      "Canola": 6653,
      "Ġportobello": 6654,
      "Ġpierce": 6655,
      "ITH": 6656,
      "Ġproportions": 6657,
      "Ġmatchsticks": 6658,
      "Ġladyf": 6659,
      "cts": 6660,
      "eye": 6661,
      "juice": 6662,
      "Ġmouth": 6663,
      "ĠCott": 6664,
      "ĠHun": 6665,
      "Ġspoons": 6666,
      "ĠChoice": 6667,
      "ĠJar": 6668,
      "Thoroughly": 6669,
      "ĠMinute": 6670,
      "ĠCanadian": 6671,
      "Ġundisturbed": 6672,
      "ĠCrockpot": 6673,
      "lightly": 6674,
      "pr": 6675,
      "Ġ199": 6676,
      "ĠFo": 6677,
      "cedure": 6678,
      "Ġsoya": 6679,
      "ĠCrunch": 6680,
      "crumbs": 6681,
      "ĠHerbs": 6682,
      "PRE": 6683,
      "Your": 6684,
      "line": 6685,
      "Ġbbq": 6686,
      "ĠCLA": 6687,
      "Ġcutters": 6688,
      "ĠOmelet": 6689,
      "ĠRoot": 6690,
      "Ġdusted": 6691,
      "ĠAsiago": 6692,
      "ormick": 6693,
      "MBINE": 6694,
      "./": 6695,
      "LY": 6696,
      "Notes": 6697,
      "turn": 6698,
      "Ġdred": 6699,
      "ĠTw": 6700,
      "ĠTre": 6701,
      "avel": 6702,
      "Ġpopped": 6703,
      "ĠAngel": 6704,
      "lb": 6705,
      "Ġmom": 6706,
      "sea": 6707,
      "ube": 6708,
      "Ġextrac": 6709,
      "iana": 6710,
      "tilled": 6711,
      "ĠVidalia": 6712,
      "Ġsautee": 6713,
      "whole": 6714,
      "Ġindirect": 6715,
      "ĠProduct": 6716,
      "Ġpassion": 6717,
      "ĠIsland": 6718,
      "Ġlabel": 6719,
      "Test": 6720,
      "atine": 6721,
      "Ġuntill": 6722,
      "ĠSU": 6723,
      "garita": 6724,
      "Ġsauc": 6725,
      "Ġramen": 6726,
      "Ġpounded": 6727,
      "Ġgloves": 6728,
      "oston": 6729,
      "ĠSeeded": 6730,
      "Alternately": 6731,
      "margarine": 6732,
      "Ġincre": 6733,
      "Pean": 6734,
      "pie": 6735,
      "Ġtacos": 6736,
      "reen": 6737,
      "ĠSushi": 6738,
      "Ġbuttercream": 6739,
      "Ġbagel": 6740,
      "Ġremovable": 6741,
      "Ġundiluted": 6742,
      "ĠMarinara": 6743,
      "ĠNeufchatel": 6744,
      "Ġcrystallized": 6745,
      "Corn": 6746,
      "bin": 6747,
      "Ġmacar": 6748,
      "ales": 6749,
      "vection": 6750,
      "Ġric": 6751,
      "ĠDay": 6752,
      "Ġscore": 6753,
      "Ġcasing": 6754,
      "ahi": 6755,
      "ĠAncho": 6756,
      "Ġomelette": 6757,
      "ĠFrying": 6758,
      "Ġreads": 6759,
      "Ġtbl": 6760,
      "Ġfle": 6761,
      "leans": 6762,
      "ĠMag": 6763,
      "ulien": 6764,
      "ĠExtract": 6765,
      "Ġrig": 6766,
      "Ġcroiss": 6767,
      "ĠSoftened": 6768,
      "Ġfritters": 6769,
      "Ġaccompaniment": 6770,
      "Ġpouch": 6771,
      "%)": 6772,
      "07": 6773,
      "BAKE": 6774,
      "hs": 6775,
      "hand": 6776,
      "net": 6777,
      "uv": 6778,
      "erk": 6779,
      "ĠTurn": 6780,
      "ĠRitz": 6781,
      "ĠWITH": 6782,
      "cond": 6783,
      "ĠKalamata": 6784,
      "Ġfilet": 6785,
      "Unmold": 6786,
      "awaiian": 6787,
      "By": 6788,
      "Parmesan": 6789,
      "sal": 6790,
      "zes": 6791,
      "Ġtied": 6792,
      "ĠBig": 6793,
      "ĠTam": 6794,
      "Ġisn": 6795,
      "ampbell": 6796,
      "Ġdecorating": 6797,
      "Ġmicrowavable": 6798,
      "ĠDollar": 6799,
      "During": 6800,
      "Small": 6801,
      "Sliced": 6802,
      "cell": 6803,
      "Ġcatfish": 6804,
      "Ġmess": 6805,
      "Ġmace": 6806,
      "Ġdeseed": 6807,
      "Ġsund": 6808,
      "ĠPacked": 6809,
      "ĠGrape": 6810,
      "Ġunderside": 6811,
      "process": 6812,
      "Ġribbon": 6813,
      "LLY": 6814,
      "Ġpalms": 6815,
      "Ġburrito": 6816,
      "Ġpicante": 6817,
      "pecially": 6818,
      "Ġsilicone": 6819,
      "*.": 6820,
      "Nut": 6821,
      "Some": 6822,
      "parsley": 6823,
      "ĠPic": 6824,
      "ĠAny": 6825,
      "ĠHo": 6826,
      "ĠHorseradish": 6827,
      "Ġarrowroot": 6828,
      "ĠCrumb": 6829,
      "apenade": 6830,
      "Ġfinishing": 6831,
      "Ġrotate": 6832,
      "posed": 6833,
      "Ġmembrane": 6834,
      "ĠPopcorn": 6835,
      "22": 6836,
      "55": 6837,
      "Bas": 6838,
      "Four": 6839,
      "uk": 6840,
      "Ġfiber": 6841,
      "abella": 6842,
      "using": 6843,
      "omet": 6844,
      "ombu": 6845,
      "Ġadds": 6846,
      "ĠRinsed": 6847,
      "ĠCointreau": 6848,
      "ĠAmaretto": 6849,
      "ĠCoriander": 6850,
      "Ġeffect": 6851,
      "Ġshelf": 6852,
      "Pile": 6853,
      "ised": 6854,
      "ĠPart": 6855,
      "ĠBran": 6856,
      "lette": 6857,
      "ĠHummus": 6858,
      "Ġoffset": 6859,
      "White": 6860,
      "after": 6861,
      "HEAT": 6862,
      "Ġescarole": 6863,
      "ĠSAUCE": 6864,
      "Peanut": 6865,
      "gy": 6866,
      "Ġsch": 6867,
      "Ġband": 6868,
      "Ġbraising": 6869,
      "Ġsmith": 6870,
      "ĠFettuccine": 6871,
      "Ġdeg": 6872,
      "Ġreduces": 6873,
      "ĠWilli": 6874,
      "Cooked": 6875,
      "Ġsoftens": 6876,
      "ĠHar": 6877,
      "regular": 6878,
      "sauce": 6879,
      "COMBINE": 6880,
      "Con": 6881,
      "Pound": 6882,
      "fashioned": 6883,
      "gian": 6884,
      "oon": 6885,
      "ĠUsing": 6886,
      "unge": 6887,
      "Ġcognac": 6888,
      "spread": 6889,
      "Ġspiced": 6890,
      "Ġoutdo": 6891,
      "ĠEd": 6892,
      "Ġbrie": 6893,
      "Variations": 6894,
      "dish": 6895,
      "ux": 6896,
      "hey": 6897,
      "Ġfashion": 6898,
      "Ġdraw": 6899,
      "abatta": 6900,
      "ĠCalorie": 6901,
      "Ġchopping": 6902,
      "Ġvine": 6903,
      "ĠId": 6904,
      "Ġquiche": 6905,
      "Ġsauteing": 6906,
      "Ġotherwise": 6907,
      "Ġgranny": 6908,
      "ĠFlat": 6909,
      "ails": 6910,
      "Ġlooking": 6911,
      "ĠUnsweetened": 6912,
      "ebabs": 6913,
      "hal": 6914,
      "ior": 6915,
      "rong": 6916,
      "Ġnavel": 6917,
      "coated": 6918,
      "Ġappetizer": 6919,
      "ĠColeslaw": 6920,
      "Ġopened": 6921,
      "ĠPerfect": 6922,
      "Acc": 6923,
      "Best": 6924,
      "off": 6925,
      "Ġever": 6926,
      "ĠFOR": 6927,
      "Stuffed": 6928,
      "ĠOF": 6929,
      "rigerated": 6930,
      "ĠPoached": 6931,
      "ĠPhilly": 6932,
      "ĠLayered": 6933,
      "MI": 6934,
      "aver": 6935,
      "eak": 6936,
      "Ġchanges": 6937,
      "mond": 6938,
      "Ġdraining": 6939,
      "Ġmarks": 6940,
      "ĠNot": 6941,
      "arbon": 6942,
      "ĠOrleans": 6943,
      "ĠBrownie": 6944,
      "ĠZip": 6945,
      "ĠBruschetta": 6946,
      "retz": 6947,
      "Ġ:)": 6948,
      "Up": 6949,
      "dis": 6950,
      "Ġtraditional": 6951,
      "Ġlavender": 6952,
      "ists": 6953,
      "adine": 6954,
      "ĠVery": 6955,
      "Ġflavorful": 6956,
      "ritional": 6957,
      "Ġguests": 6958,
      "ribute": 6959,
      "Ġplaces": 6960,
      "ĠCobbler": 6961,
      "Ġyourself": 6962,
      "Ġshucked": 6963,
      "Sec": 6964,
      "Substitute": 6965,
      "take": 6966,
      "Ġscones": 6967,
      "itos": 6968,
      "Ġgather": 6969,
      "olf": 6970,
      "ĠBou": 6971,
      "ĠFig": 6972,
      "Stand": 6973,
      "ĠHE": 6974,
      "Ġmarinating": 6975,
      "Ġ140": 6976,
      "Ġgrainy": 6977,
      "Ġindividually": 6978,
      "Ġoverlap": 6979,
      "Ġaubergine": 6980,
      "Prep": 6981,
      "SER": 6982,
      "makes": 6983,
      "Ġpch": 6984,
      "ilit": 6985,
      "Ġpectin": 6986,
      "Ġfluted": 6987,
      "ĠPita": 6988,
      "ĠMolasses": 6989,
      "Ġkey": 6990,
      "Ġfinally": 6991,
      "Ġfreezing": 6992,
      "arbe": 6993,
      "loom": 6994,
      "Ġcolors": 6995,
      "ĠYeast": 6996,
      "Ġmex": 6997,
      "ĠMocha": 6998,
      "Ġdecoration": 6999,
      "ĠDevil": 7000,
      "Ġrequire": 7001,
      "ĠTriple": 7002,
      "autif": 7003,
      "eer": 7004,
      "Ġcount": 7005,
      "onds": 7006,
      "Ġob": 7007,
      "Ġpops": 7008,
      "Ġdairy": 7009,
      "ĠCres": 7010,
      "garian": 7011,
      "Ġgruyere": 7012,
      "quettes": 7013,
      "ĠRE": 7014,
      "ĠChorizo": 7015,
      "anterel": 7016,
      "Ġmeld": 7017,
      "Ġchopsticks": 7018,
      "Unwrap": 7019,
      "canned": 7020,
      "Ġquesadillas": 7021,
      "ĠBundt": 7022,
      "Each": 7023,
      "een": 7024,
      "fruit": 7025,
      "wur": 7026,
      "Ġba": 7027,
      "ĠCO": 7028,
      "ustic": 7029,
      "ĠRich": 7030,
      "ĠLIGHT": 7031,
      "Ġshortbread": 7032,
      "arines": 7033,
      "Ġrims": 7034,
      "Ġreheated": 7035,
      "Ġextracts": 7036,
      "Great": 7037,
      "Ġsizes": 7038,
      "aded": 7039,
      "ĠTort": 7040,
      "Ġsmash": 7041,
      "Ġperi": 7042,
      "western": 7043,
      "UFFED": 7044,
      "AST": 7045,
      "day": 7046,
      "tain": 7047,
      "Ġdumpling": 7048,
      "pps": 7049,
      "ister": 7050,
      "Ġ220": 7051,
      "Ġrope": 7052,
      "anthan": 7053,
      "ĠEx": 7054,
      "Ġdrizzled": 7055,
      "Ġrocks": 7056,
      "Ġgrocery": 7057,
      "TE": 7058,
      "gu": 7059,
      "slice": 7060,
      "ugg": 7061,
      "icro": 7062,
      "Ġminimum": 7063,
      "raz": 7064,
      "ĠScones": 7065,
      "Ġthings": 7066,
      "Ġspl": 7067,
      "Ġshiso": 7068,
      "ental": 7069,
      "ĠDashi": 7070,
      "ĠCognac": 7071,
      "anoff": 7072,
      "Ġpulled": 7073,
      "ajita": 7074,
      "avourite": 7075,
      "Tw": 7076,
      "ja": 7077,
      "Ġmould": 7078,
      "oking": 7079,
      "Ġmixtures": 7080,
      "iper": 7081,
      "Ġseams": 7082,
      "Ġcanning": 7083,
      "Ġcovers": 7084,
      "Ġprocedure": 7085,
      "ĠEm": 7086,
      "ĠKrisp": 7087,
      "Ġgoose": 7088,
      "Ġpartic": 7089,
      "Ġtines": 7090,
      "ĠLiquid": 7091,
      "Ġpetals": 7092,
      "Move": 7093,
      "TH": 7094,
      "cilantro": 7095,
      "Ġta": 7096,
      "Ġplease": 7097,
      "ane": 7098,
      "Ġstur": 7099,
      "ĠSH": 7100,
      "ĠBoston": 7101,
      "Ġstirred": 7102,
      "Ġenv": 7103,
      "Ġreplac": 7104,
      "ĠHearty": 7105,
      "dock": 7106,
      "ĠGrandma": 7107,
      "ĠSnow": 7108,
      "Ġachieve": 7109,
      "degree": 7110,
      "idden": 7111,
      "Other": 7112,
      "bring": 7113,
      "sto": 7114,
      "ti": 7115,
      "Ġdiff": 7116,
      "ĠCarbohydr": 7117,
      "Ġgrinds": 7118,
      "ĠFillets": 7119,
      "ĠWhen": 7120,
      "Ġbased": 7121,
      "napps": 7122,
      "Ġswitch": 7123,
      "ĠPoppy": 7124,
      "ĠScallions": 7125,
      "Ġpushing": 7126,
      "Ġpimentos": 7127,
      "ĠLeek": 7128,
      "ĠUsed": 7129,
      "Last": 7130,
      "Roughly": 7131,
      "dash": 7132,
      "now": 7133,
      "icult": 7134,
      "achos": 7135,
      "Ġfronds": 7136,
      "ĠSalted": 7137,
      "ĠFluff": 7138,
      "Ġsqueezing": 7139,
      "ends": 7140,
      "ĠDelight": 7141,
      "Ġwidth": 7142,
      "Secure": 7143,
      "):": 7144,
      "700": 7145,
      "Good": 7146,
      "light": 7147,
      "squ": 7148,
      "arters": 7149,
      "ĠCod": 7150,
      "ĠCHE": 7151,
      "ardines": 7152,
      "ubl": 7153,
      "imeji": 7154,
      "ĠHawaiian": 7155,
      "ĠEver": 7156,
      "ĠEach": 7157,
      "istribute": 7158,
      "Ġcycle": 7159,
      "roganoff": 7160,
      "Ġspiral": 7161,
      "ĠCottage": 7162,
      "Dump": 7163,
      "Mex": 7164,
      "PUFFED": 7165,
      "yre": 7166,
      "enu": 7167,
      "aken": 7168,
      "Ġuns": 7169,
      "usilli": 7170,
      "ĠSund": 7171,
      "ades": 7172,
      "ida": 7173,
      "Ġ360": 7174,
      "Ġshot": 7175,
      "ĠGrain": 7176,
      "ĠChard": 7177,
      "Ġconfectioner": 7178,
      "ĠLess": 7179,
      "Ġslc": 7180,
      "Ġslab": 7181,
      "Ġapply": 7182,
      "ĠSprinkle": 7183,
      "That": 7184,
      "Ġpitas": 7185,
      "icotti": 7186,
      "Ġespecially": 7187,
      "Ġpulls": 7188,
      "Ġexactly": 7189,
      "Ġclaws": 7190,
      "Ġdredging": 7191,
      "Green": 7192,
      "iri": 7193,
      "west": 7194,
      "ĠParty": 7195,
      "ĠRipe": 7196,
      "Ġdec": 7197,
      "pean": 7198,
      "ĠJET": 7199,
      "Quarter": 7200,
      "ĠUp": 7201,
      "Ġchestnut": 7202,
      "ĠBarley": 7203,
      "Ġfrittata": 7204,
      "Ġpoaching": 7205,
      "Ġoutdoor": 7206,
      "yrex": 7207,
      "Ġton": 7208,
      "olut": 7209,
      "ĠFra": 7210,
      "ĠFontina": 7211,
      "ĠMand": 7212,
      "ĠMeringue": 7213,
      "avioli": 7214,
      "Ġmeatball": 7215,
      "eets": 7216,
      "olland": 7217,
      "Ġspreadable": 7218,
      "Ġcurrant": 7219,
      "Ġperfectly": 7220,
      "Ġsometimes": 7221,
      "ĠColby": 7222,
      "Plate": 7223,
      "ridger": 7224,
      "based": 7225,
      "paprika": 7226,
      "wood": 7227,
      "Ġchocol": 7228,
      "ounder": 7229,
      "Ġslip": 7230,
      "Ġpeels": 7231,
      "ĠChest": 7232,
      "ĠEl": 7233,
      "Ġresid": 7234,
      "Ġdoing": 7235,
      "Ġaged": 7236,
      "Ġdirection": 7237,
      "udel": 7238,
      "towel": 7239,
      "ĠTropical": 7240,
      "ĠChop": 7241,
      "Ġcone": 7242,
      "ĠLinguine": 7243,
      "Ġarr": 7244,
      "istant": 7245,
      "fryer": 7246,
      "ĠYummy": 7247,
      "ĠSmok": 7248,
      "Ġpulling": 7249,
      "Ġpuffs": 7250,
      "Ġtilapia": 7251,
      "Ġscramble": 7252,
      "Ġpicture": 7253,
      "Ġsilver": 7254,
      "ĠProvence": 7255,
      "ĠNeeded": 7256,
      "Bread": 7257,
      "bles": 7258,
      "vely": 7259,
      "onzu": 7260,
      "Ġfava": 7261,
      "icor": 7262,
      "Ġdump": 7263,
      "Ġgot": 7264,
      "ighter": 7265,
      "ggies": 7266,
      "ĠPure": 7267,
      "Ġyoung": 7268,
      "though": 7269,
      "thawed": 7270,
      "ĠVodka": 7271,
      "Ġdisc": 7272,
      "ĠCholesterol": 7273,
      "Ġnectarines": 7274,
      "UTTER": 7275,
      "ĠShallot": 7276,
      "Ġhominy": 7277,
      "Ġtangerine": 7278,
      "Ġdeseeded": 7279,
      "Ġ~": 7280,
      "Ġfarro": 7281,
      "ortill": 7282,
      "Ġdelic": 7283,
      "issa": 7284,
      "ĠBul": 7285,
      "Ġcompote": 7286,
      "colored": 7287,
      "ĠOver": 7288,
      "Ġmedallions": 7289,
      "Ġswordfish": 7290,
      "asagne": 7291,
      "Ġstrings": 7292,
      "ĠApplesauce": 7293,
      "Ġmanufacturers": 7294,
      "igger": 7295,
      "cellent": 7296,
      "via": 7297,
      "Ġ=": 7298,
      "Ġgingersn": 7299,
      "Ġbeautif": 7300,
      "Ġflaky": 7301,
      "ĠPa": 7302,
      "ĠDeep": 7303,
      "Ġkids": 7304,
      "ĠTOP": 7305,
      "Ġladyfingers": 7306,
      "occ": 7307,
      "itamin": 7308,
      "imchi": 7309,
      "Ġskillets": 7310,
      "aved": 7311,
      "ĠWe": 7312,
      "ĠKabocha": 7313,
      "Ġdistilled": 7314,
      "Ġbagels": 7315,
      "mented": 7316,
      "Ġknives": 7317,
      "Ġtransferring": 7318,
      "ussel": 7319,
      "Ġdidn": 7320,
      "Ġbuild": 7321,
      "ĠRagu": 7322,
      "Ġcylinder": 7323,
      "ometimes": 7324,
      "ĠCarbohydrate": 7325,
      "COO": 7326,
      "Ġcobs": 7327,
      "toasted": 7328,
      "Ġoverbake": 7329,
      "imich": 7330,
      "Ġremember": 7331,
      "ĠDo": 7332,
      "Ġ600": 7333,
      "ival": 7334,
      "ĠFlore": 7335,
      "cluding": 7336,
      "ĠFrittata": 7337,
      "ĠBroiled": 7338,
      "cotch": 7339,
      "ike": 7340,
      "Ġaioli": 7341,
      "Ġlimp": 7342,
      "ĠSubstitute": 7343,
      "ĠMild": 7344,
      "Ġsalads": 7345,
      "Ġpurch": 7346,
      "Ġvertically": 7347,
      "115": 7348,
      "jack": 7349,
      "pinch": 7350,
      "Ġlunch": 7351,
      "ĠSor": 7352,
      "Ġpanini": 7353,
      "iew": 7354,
      "Ġseared": 7355,
      "Ġjug": 7356,
      "ĠChive": 7357,
      "ĠOats": 7358,
      "ĠAdo": 7359,
      "ĠHers": 7360,
      "ĠKorean": 7361,
      "terscotch": 7362,
      "saute": 7363,
      "Ġdrinking": 7364,
      "Ġclosely": 7365,
      "Ġquantity": 7366,
      "whe": 7367,
      "asy": 7368,
      "uniper": 7369,
      "ĠSkew": 7370,
      "ĠSTO": 7371,
      "ĠPretz": 7372,
      "ĠRavioli": 7373,
      "Ġfrypan": 7374,
      "Ġresult": 7375,
      "plus": 7376,
      "Ġconsomme": 7377,
      "ĠWatermelon": 7378,
      "Ġinclude": 7379,
      "Ġproduce": 7380,
      "nadine": 7381,
      "Ġiced": 7382,
      "Ġ75": 7383,
      "ĠAbout": 7384,
      "Ġfrisee": 7385,
      "Ġcorrect": 7386,
      "ĠProcess": 7387,
      "ĠCubed": 7388,
      "Ġdifficult": 7389,
      "Large": 7390,
      "Ġcause": 7391,
      "Ġwinter": 7392,
      "Ġhouse": 7393,
      "Ġrender": 7394,
      "Ġgrates": 7395,
      "quef": 7396,
      "Ġexposed": 7397,
      "ĠPears": 7398,
      "ĠNon": 7399,
      "ĠScotch": 7400,
      "hydrated": 7401,
      "Ġgiven": 7402,
      "Ġflattened": 7403,
      "ĠWilliam": 7404,
      "wa": 7405,
      "Ġpen": 7406,
      "Ġple": 7407,
      "Ġfontina": 7408,
      "abag": 7409,
      "ĠDI": 7410,
      "Mixture": 7411,
      "Ġart": 7412,
      "oya": 7413,
      "paration": 7414,
      "Ġgelatine": 7415,
      "uyu": 7416,
      "Ġdollops": 7417,
      "ĠArtichokes": 7418,
      "ĠShortbread": 7419,
      "seeded": 7420,
      "ĠCompote": 7421,
      "ĠQuesadillas": 7422,
      "Very": 7423,
      "bol": 7424,
      "Ġacorn": 7425,
      "Ġcajun": 7426,
      "Ġsambal": 7427,
      "Ġparfait": 7428,
      "Ġele": 7429,
      "verage": 7430,
      "Ġ26": 7431,
      "Ġyear": 7432,
      "ĠPil": 7433,
      "ĠFive": 7434,
      "ĠRhubarb": 7435,
      "Step": 7436,
      "Ġdoughnuts": 7437,
      "Ġpackaged": 7438,
      "ĠPeel": 7439,
      "ĠCreamed": 7440,
      "arina": 7441,
      "ĠChiles": 7442,
      "ĠBananas": 7443,
      "ĠUncooked": 7444,
      "errine": 7445,
      "Ġsecurely": 7446,
      "Ġsubmerged": 7447,
      "ublished": 7448,
      "\")": 7449,
      "Italian": 7450,
      "PLA": 7451,
      "Tuck": 7452,
      "ele": 7453,
      "ha": 7454,
      "non": 7455,
      "sided": 7456,
      "uded": 7457,
      "inz": 7458,
      "uting": 7459,
      "ĠCalories": 7460,
      "ĠPress": 7461,
      "ĠBle": 7462,
      "Ġ475": 7463,
      "ĠDate": 7464,
      "Ġmeaty": 7465,
      "Ġenamel": 7466,
      "Ġspooning": 7467,
      "awry": 7468,
      "Ġcolby": 7469,
      "Ġpits": 7470,
      "board": 7471,
      "mixture": 7472,
      "arfalle": 7473,
      "ĠBelgian": 7474,
      "Depending": 7475,
      "ku": 7476,
      "asty": 7477,
      "Ġbechamel": 7478,
      "Ġyummy": 7479,
      "ieved": 7480,
      "Ġseem": 7481,
      "Ġgrenadine": 7482,
      "ĠPeaches": 7483,
      "Ġxanthan": 7484,
      "Ġpoints": 7485,
      "mixed": 7486,
      "Ġtempeh": 7487,
      "Ġreleased": 7488,
      "Tomato": 7489,
      "Accompan": 7490,
      "KE": 7491,
      "Poke": 7492,
      "Rice": 7493,
      "wrapped": 7494,
      "ani": 7495,
      "Ġjasmine": 7496,
      "ĠBit": 7497,
      "Ġseven": 7498,
      "ĠAut": 7499,
      "Ġrefresh": 7500,
      "which": 7501,
      "Ġsurround": 7502,
      "Ġcreating": 7503,
      "Ġsealing": 7504,
      "potles": 7505,
      "skinned": 7506,
      "pat": 7507,
      "Ġfashioned": 7508,
      "Ġfocaccia": 7509,
      "acci": 7510,
      "iener": 7511,
      "Ġnumber": 7512,
      "Ġsoggy": 7513,
      "ĠFries": 7514,
      "ĠDon": 7515,
      "Ġ120": 7516,
      "cool": 7517,
      "Ġsimmers": 7518,
      "Ġwraps": 7519,
      "aho": 7520,
      "Ġshreds": 7521,
      "Ġwontons": 7522,
      "ĠEnchilada": 7523,
      "Glazed": 7524,
      "Ġrigatoni": 7525,
      "apo": 7526,
      "burger": 7527,
      "ched": 7528,
      "ding": 7529,
      "dew": 7530,
      "tip": 7531,
      "Ġcrawfish": 7532,
      "enjoy": 7533,
      "Ġlifting": 7534,
      "gets": 7535,
      "rest": 7536,
      "ĠBolog": 7537,
      "ĠMont": 7538,
      "ĠRoughly": 7539,
      "ĠJess": 7540,
      "ĠSplit": 7541,
      "Ġmashing": 7542,
      "ĠLike": 7543,
      "ĠRomaine": 7544,
      "ĠShallots": 7545,
      "eftover": 7546,
      "ĠCLASS": 7547,
      "Ġperiod": 7548,
      "HO": 7549,
      "dered": 7550,
      "hest": 7551,
      "Ġbuffalo": 7552,
      "Ġparm": 7553,
      "irty": 7554,
      "ĠPistach": 7555,
      "ĠTarragon": 7556,
      "Ġroaster": 7557,
      "ĠHard": 7558,
      "Ġchilis": 7559,
      "Ġgranular": 7560,
      "uggets": 7561,
      "clun": 7562,
      "Ġpreserved": 7563,
      "Ġstarted": 7564,
      "Ġparsnip": 7565,
      "ĠCubes": 7566,
      "Ġsturdy": 7567,
      "quefort": 7568,
      "39": 7569,
      "Em": 7570,
      "Either": 7571,
      "cents": 7572,
      "ez": 7573,
      "Ġbirds": 7574,
      "Ġfavourite": 7575,
      "Ġhang": 7576,
      "ĠPillsbury": 7577,
      "ĠChilled": 7578,
      "ĠLagas": 7579,
      "Ġmaybe": 7580,
      "Ġbites": 7581,
      "Ġrotisserie": 7582,
      "Ġherbes": 7583,
      "ĠSouthwestern": 7584,
      "Comments": 7585,
      "ĠPatties": 7586,
      "ĠLagasse": 7587,
      "New": 7588,
      "Since": 7589,
      "Ġfaster": 7590,
      "Ġdraft": 7591,
      "ĠPitted": 7592,
      "ĠDaikon": 7593,
      "Ġdesign": 7594,
      "Ġparty": 7595,
      "ATION": 7596,
      "minutes": 7597,
      "ĠLeaf": 7598,
      "ĠButterscotch": 7599,
      "ĠWaffles": 7600,
      "Ġciabatta": 7601,
      "ĠHungarian": 7602,
      "arbeque": 7603,
      "ĠKrispies": 7604,
      "Past": 7605,
      "ius": 7606,
      "eno": 7607,
      "ense": 7608,
      "Ġtot": 7609,
      "irloom": 7610,
      "ĠBa": 7611,
      "Ġshrink": 7612,
      "ackerel": 7613,
      "ĠMIN": 7614,
      "140": 7615,
      "Ġfillings": 7616,
      "Ġbonito": 7617,
      "Ġjarred": 7618,
      "Score": 7619,
      "ĠFritters": 7620,
      "Ġchocolates": 7621,
      "ĠAdobo": 7622,
      "Any": 7623,
      "cri": 7624,
      "save": 7625,
      "soy": 7626,
      "Ġcass": 7627,
      "Ġment": 7628,
      "Ġandouille": 7629,
      "Ġfer": 7630,
      "Ġ110": 7631,
      "Ġchanterel": 7632,
      "Ġjuniper": 7633,
      "ĠPomegranate": 7634,
      "ipton": 7635,
      "Ġcanner": 7636,
      "Ġroots": 7637,
      "ĠCover": 7638,
      "eltzer": 7639,
      "ĠChickpea": 7640,
      "Remember": 7641,
      "ollandaise": 7642,
      "occan": 7643,
      "ĠSkewers": 7644,
      "ICO": 7645,
      "hn": 7646,
      "Ġbark": 7647,
      "Ġoc": 7648,
      "icots": 7649,
      "ĠCam": 7650,
      "Ġsay": 7651,
      "fflower": 7652,
      "coarse": 7653,
      "Ġextending": 7654,
      "ĠHazelnut": 7655,
      "Ġtrying": 7656,
      "Ġstreusel": 7657,
      "Ġmandoline": 7658,
      "wurst": 7659,
      "gas": 7660,
      "tl": 7661,
      "Ġvent": 7662,
      "Ġbuckwheat": 7663,
      "Ġtots": 7664,
      "ouis": 7665,
      "verted": 7666,
      "rip": 7667,
      "ĠSpeci": 7668,
      "Ġnaan": 7669,
      "Ġspecial": 7670,
      "ĠBatter": 7671,
      "quarters": 7672,
      "Ġclump": 7673,
      "resso": 7674,
      "Ġbreading": 7675,
      "Ġprepar": 7676,
      "ĠStre": 7677,
      "floured": 7678,
      "ĠChilies": 7679,
      "softened": 7680,
      "powdered": 7681,
      "Ġ1993": 7682,
      "ortilla": 7683,
      "Apple": 7684,
      "Sn": 7685,
      "time": 7686,
      "onc": 7687,
      "Ġbak": 7688,
      "Ġ115": 7689,
      "ĠSil": 7690,
      "imate": 7691,
      "Ġskip": 7692,
      "ĠKid": 7693,
      "attice": 7694,
      "ĠRoquefort": 7695,
      "ĠBreadcrumbs": 7696,
      "OOD": 7697,
      "raisins": 7698,
      "ĠMorrow": 7699,
      "Vanilla": 7700,
      "dairy": 7701,
      "well": 7702,
      "Ġswe": 7703,
      "leave": 7704,
      "Ġlose": 7705,
      "ĠCher": 7706,
      "ickel": 7707,
      "ĠPink": 7708,
      "Ġrubbed": 7709,
      "Ġsoba": 7710,
      "Core": 7711,
      "Ġyoull": 7712,
      "ĠDes": 7713,
      "Ġcornfl": 7714,
      "Ġscrew": 7715,
      "Ġthats": 7716,
      "Ġdiamon": 7717,
      "ĠFlavored": 7718,
      "Ġconsist": 7719,
      "ĠCornmeal": 7720,
      "urized": 7721,
      "ĠStove": 7722,
      "ĠPackages": 7723,
      "Smooth": 7724,
      "ĠCLASSICO": 7725,
      "Ex": 7726,
      "From": 7727,
      "ae": 7728,
      "dressing": 7729,
      "hind": 7730,
      "Ġsriracha": 7731,
      "ados": 7732,
      "ĠBits": 7733,
      "ĠTangy": 7734,
      "Ġappears": 7735,
      "Ġresting": 7736,
      "semi": 7737,
      "Ġadapted": 7738,
      "hydrate": 7739,
      "Carve": 7740,
      "Ġinfuse": 7741,
      "Ġfeels": 7742,
      "ietnam": 7743,
      "Cormick": 7744,
      "Ġchow": 7745,
      "Ġhickory": 7746,
      "Ġsaltine": 7747,
      "ĠMal": 7748,
      "Ġkabobs": 7749,
      "Ġ130": 7750,
      "ĠOrzo": 7751,
      "Ġhardened": 7752,
      "Ġcondiments": 7753,
      "Ġpral": 7754,
      "ĠVerde": 7755,
      "binado": 7756,
      "icorice": 7757,
      "gund": 7758,
      "my": 7759,
      "run": 7760,
      "Ġsat": 7761,
      "Ġben": 7762,
      "icle": 7763,
      "ourmet": 7764,
      "garnish": 7765,
      "ĠPies": 7766,
      "ĠBer": 7767,
      "ĠThigh": 7768,
      "ĠTirsch": 7769,
      "ĠJust": 7770,
      "Ġsurfaces": 7771,
      "Ġnutty": 7772,
      "ĠInch": 7773,
      "Ġportabella": 7774,
      "Ġfresco": 7775,
      "ĠHershey": 7776,
      "ĠJessie": 7777,
      "Av": 7778,
      "EP": 7779,
      "Powdered": 7780,
      "cross": 7781,
      "tic": 7782,
      "Ġcacao": 7783,
      "real": 7784,
      "Ġ21": 7785,
      "Ġ225": 7786,
      "Ġflute": 7787,
      "ĠPrepared": 7788,
      "Ġsmo": 7789,
      "ipan": 7790,
      "ĠFirm": 7791,
      "ĠMark": 7792,
      "Ġ125": 7793,
      "Ġpastries": 7794,
      "ĠHand": 7795,
      "Ġmarble": 7796,
      "ĠStroganoff": 7797,
      "Ġhandheld": 7798,
      "elsius": 7799,
      "Ġdecoratively": 7800,
      "anche": 7801,
      "ĠOriental": 7802,
      "ĠTorte": 7803,
      "Ġbriskly": 7804,
      "ĠJalapenos": 7805,
      "ĠSticks": 7806,
      "Ġpulsing": 7807,
      "ĠPilaf": 7808,
      "ietnamese": 7809,
      "Wait": 7810,
      "Ġtried": 7811,
      "ĠSan": 7812,
      "ĠSpoon": 7813,
      "Ġnorthern": 7814,
      "edible": 7815,
      "Stick": 7816,
      "ĠHome": 7817,
      "Ġhighball": 7818,
      "ousand": 7819,
      "Ġtossed": 7820,
      "Ġ145": 7821,
      "entsuyu": 7822,
      "eringues": 7823,
      "Ġpuffy": 7824,
      "ĠUps": 7825,
      "Ġactually": 7826,
      "ĠPickles": 7827,
      "basil": 7828,
      "Ġcollard": 7829,
      "Ġsilken": 7830,
      "Ġnormal": 7831,
      "ĠMagic": 7832,
      "Confectioners": 7833,
      "Egg": 7834,
      "Ġsardines": 7835,
      "Ġtost": 7836,
      "Ġdire": 7837,
      "ĠSkim": 7838,
      "aters": 7839,
      "ĠPol": 7840,
      "ĠFres": 7841,
      "ĠMary": 7842,
      "lettuce": 7843,
      "Ġheav": 7844,
      "Ġsoupy": 7845,
      "ĠCoarse": 7846,
      "Ġothers": 7847,
      "ĠVeggies": 7848,
      "Ġmein": 7849,
      "Ġmeet": 7850,
      "REAM": 7851,
      "ĠClam": 7852,
      "Ġburst": 7853,
      "alamari": 7854,
      "Caramel": 7855,
      "ĠValley": 7856,
      "Ġmoment": 7857,
      "Ġsundried": 7858,
      "Hand": 7859,
      "Half": 7860,
      "bean": 7861,
      "iki": 7862,
      "rice": 7863,
      "Ġtre": 7864,
      "asant": 7865,
      "asabi": 7866,
      "ancy": 7867,
      "ĠFond": 7868,
      "ĠLittle": 7869,
      "Ġarborio": 7870,
      "Ġprocessed": 7871,
      "Topping": 7872,
      "Ġchipotles": 7873,
      "ĠFlank": 7874,
      "Ġfilo": 7875,
      "ĠClove": 7876,
      "ĠMiniature": 7877,
      "Ġbutterflied": 7878,
      "gundy": 7879,
      "Batter": 7880,
      "Baked": 7881,
      "Rot": 7882,
      "inted": 7883,
      "Ġseltzer": 7884,
      "Ġbigger": 7885,
      "Ġoxt": 7886,
      "Ġmus": 7887,
      "ict": 7888,
      "ĠCat": 7889,
      "ĠCampbell": 7890,
      "etter": 7891,
      "iders": 7892,
      "Ġyouve": 7893,
      "greek": 7894,
      "ĠVari": 7895,
      "Ġbringing": 7896,
      "ubbing": 7897,
      "Ġbru": 7898,
      "ĠHalved": 7899,
      "Ġpimientos": 7900,
      "affir": 7901,
      "ICE": 7902,
      "simmer": 7903,
      "Ġtarts": 7904,
      "inf": 7905,
      "once": 7906,
      "oncini": 7907,
      "Ġdig": 7908,
      "acity": 7909,
      "Ġchinese": 7910,
      "ĠSur": 7911,
      "Ġgram": 7912,
      "Ġyuzu": 7913,
      "Ġnapa": 7914,
      "Ġjigg": 7915,
      "Ġrat": 7916,
      "ĠAunt": 7917,
      "Ġalfredo": 7918,
      "Ġmochi": 7919,
      "cluded": 7920,
      "breads": 7921,
      "ĠMandarin": 7922,
      "Ġpreparation": 7923,
      "bits": 7924,
      "heim": 7925,
      "Ġobl": 7926,
      "Ġpaint": 7927,
      "Ġmatter": 7928,
      "atz": 7929,
      "anos": 7930,
      "Ġlicorice": 7931,
      "ours": 7932,
      "usters": 7933,
      "Ġnavy": 7934,
      "oshi": 7935,
      "ĠWedges": 7936,
      "Ġsmoothing": 7937,
      "Ġbottomed": 7938,
      "ucing": 7939,
      "Ġgarnishing": 7940,
      "topus": 7941,
      "Ġtilt": 7942,
      "Ġgarnishes": 7943,
      "Ġeighths": 7944,
      "Ġscalded": 7945,
      "Not": 7946,
      "She": 7947,
      "divided": 7948,
      "skin": 7949,
      "ww": 7950,
      "Ġtid": 7951,
      "Ġtasting": 7952,
      "ups": 7953,
      "ĠCond": 7954,
      "umper": 7955,
      "Ġdevil": 7956,
      "avoured": 7957,
      "ĠSaffron": 7958,
      "Ġziti": 7959,
      "ĠVen": 7960,
      "anged": 7961,
      "Ġburners": 7962,
      "ĠHearts": 7963,
      "Ġpresentation": 7964,
      "ĠChives": 7965,
      "ĠSeared": 7966,
      "uraage": 7967,
      "Ġessent": 7968,
      "ĠMIX": 7969,
      "ĠMcCormick": 7970,
      "Ġtrimmings": 7971,
      "Ġdirects": 7972,
      "Ġoblong": 7973,
      "bowl": 7974,
      "den": 7975,
      "fil": 7976,
      "tie": 7977,
      "inis": 7978,
      "veined": 7979,
      "ĠSE": 7980,
      "ĠSouffle": 7981,
      "Ġwatery": 7982,
      "ĠFine": 7983,
      "ĠFLA": 7984,
      "osh": 7985,
      "ĠWinter": 7986,
      "Ġblackberry": 7987,
      "tomato": 7988,
      "perature": 7989,
      "Replace": 7990,
      "Ġfitting": 7991,
      "ĠPancetta": 7992,
      "ĠProv": 7993,
      "Ġscorching": 7994,
      "ĠSTOVE": 7995,
      "ĠThighs": 7996,
      "Japanese": 7997,
      "Rew": 7998,
      "WELL": 7999,
      "house": 8000,
      "nonstick": 8001,
      "Ġbalance": 8002,
      "Ġdsh": 8003,
      "Ġstale": 8004,
      "Ġcreamer": 8005,
      "Ġupon": 8006,
      "Ġpeeling": 8007,
      "ĠNatural": 8008,
      "Ġnutritional": 8009,
      "arboil": 8010,
      "ajitas": 8011,
      "Ġdevein": 8012,
      "Ġwaiting": 8013,
      "ĠHalibut": 8014,
      "enugreek": 8015,
      "Low": 8016,
      "nese": 8017,
      "wards": 8018,
      "ĠQ": 8019,
      "Ġsimmered": 8020,
      "Ġbiscotti": 8021,
      "Ġpi": 8022,
      "Ġdess": 8023,
      "ĠCrepes": 8024,
      "ĠPat": 8025,
      "ĠTasty": 8026,
      "Ġsole": 8027,
      "ĠMrs": 8028,
      "andel": 8029,
      "ĠHass": 8030,
      "Ġcontent": 8031,
      "Ġwhisked": 8032,
      "Ġcollect": 8033,
      "Ġruns": 8034,
      "Ġbrick": 8035,
      "Ġstewing": 8036,
      "Ġquesadilla": 8037,
      "ivalent": 8038,
      "ĠSpecial": 8039,
      "umpern": 8040,
      "GAR": 8041,
      "melt": 8042,
      "spoon": 8043,
      "Ġlattice": 8044,
      "ĠPap": 8045,
      "ĠLong": 8046,
      "panadas": 8047,
      "ĠShiitake": 8048,
      "ĠRock": 8049,
      "Ġflavours": 8050,
      "ĠCandied": 8051,
      "ĠMoroccan": 8052,
      "alloween": 8053,
      "Ġspareribs": 8054,
      "Cake": 8055,
      "dont": 8056,
      "Ġid": 8057,
      "Ġ...": 8058,
      "Ġpate": 8059,
      "Ġmind": 8060,
      "Ġplunge": 8061,
      "color": 8062,
      "Ġusual": 8063,
      "iang": 8064,
      "ĠKabobs": 8065,
      "Whipped": 8066,
      "ĠCracked": 8067,
      "beef": 8068,
      "Ġpersonal": 8069,
      "Ġziplock": 8070,
      "ĠBrandy": 8071,
      "ĠCapers": 8072,
      "aiser": 8073,
      "Twist": 8074,
      "parmesan": 8075,
      "Ġur": 8076,
      "hered": 8077,
      "ald": 8078,
      "ĠSec": 8079,
      "Ġsafflower": 8080,
      "spray": 8081,
      "Ġeggnog": 8082,
      "Ġasiago": 8083,
      "ĠOat": 8084,
      "zech": 8085,
      "ĠWhipping": 8086,
      "Ġfourth": 8087,
      "Ġfourths": 8088,
      "ĠPanini": 8089,
      "Ġalternate": 8090,
      "beans": 8091,
      "Ġcourget": 8092,
      "Ġmillilit": 8093,
      "ĠLentils": 8094,
      "%-": 8095,
      "220": 8096,
      "79": 8097,
      "Tr": 8098,
      "zipan": 8099,
      "Ġfar": 8100,
      "Ġfarm": 8101,
      "otic": 8102,
      "ridge": 8103,
      "ĠCav": 8104,
      "ĠCereal": 8105,
      "Ġbehind": 8106,
      "ĠPres": 8107,
      "ĠPops": 8108,
      "osing": 8109,
      "ulce": 8110,
      "ĠOther": 8111,
      "Ġingred": 8112,
      "ĠDor": 8113,
      "Ġsettle": 8114,
      "ĠChef": 8115,
      "Ġlock": 8116,
      "Ġlentil": 8117,
      "Ġudon": 8118,
      "ĠYork": 8119,
      "Ġbrittle": 8120,
      "ĠCornish": 8121,
      "errano": 8122,
      "ĠSouthwest": 8123,
      "ĠQueso": 8124,
      "ĠFrank": 8125,
      "Ġflameproof": 8126,
      "PLACE": 8127,
      "EAT": 8128,
      "Fit": 8129,
      "iously": 8130,
      "lot": 8131,
      "nic": 8132,
      "Ġq": 8133,
      "Ġtreat": 8134,
      "erate": 8135,
      "Ġfusilli": 8136,
      "ĠSP": 8137,
      "urri": 8138,
      "Ġroe": 8139,
      "Ġuses": 8140,
      "ĠAd": 8141,
      "ĠAle": 8142,
      "ĠAioli": 8143,
      "izer": 8144,
      "ĠIced": 8145,
      "ĠEsp": 8146,
      "ENT": 8147,
      "ĠMadeira": 8148,
      "ĠPortobello": 8149,
      "uxe": 8150,
      "ĠZiploc": 8151,
      "CA": 8152,
      "utral": 8153,
      "chop": 8154,
      "ĠTbl": 8155,
      "stead": 8156,
      "Ġrip": 8157,
      "Thin": 8158,
      "ĠPeppercorn": 8159,
      "loppy": 8160,
      "ERY": 8161,
      "Ġcapacity": 8162,
      "ĠBlanc": 8163,
      "ĠMeatball": 8164,
      "Ġfeet": 8165,
      "ĠFREE": 8166,
      "ulienne": 8167,
      "88": 8168,
      "800": 8169,
      "Cre": 8170,
      "pacho": 8171,
      "Ġedible": 8172,
      "ilt": 8173,
      "Ġhr": 8174,
      "Ġgrit": 8175,
      "ĠAb": 8176,
      "rimps": 8177,
      "ĠVick": 8178,
      "ĠVietnamese": 8179,
      "Ġhandles": 8180,
      "ĠButtercream": 8181,
      "azpacho": 8182,
      "STAL": 8183,
      "Ġimported": 8184,
      "ĠChunks": 8185,
      "RYSTAL": 8186,
      "ĠChickpeas": 8187,
      "square": 8188,
      "umpernickel": 8189,
      "firm": 8190,
      "ni": 8191
    },
    "merges": [
      "Ġ t",
      "i n",
      "Ġ a",
      "Ġ c",
      "Ġ s",
      "h e",
      "r e",
      "o n",
      "e r",
      "n d",
      "e s",
      "Ġ b",
      "Ġ o",
      "Ġt he",
      "e d",
      "Ġ p",
      "Ġ m",
      "a t",
      "Ġa nd",
      "i l",
      "a r",
      "Ġ w",
      "Ġ f",
      "i t",
      "e n",
      "u t",
      "Ġt o",
      "l e",
      "in g",
      "i c",
      "a s",
      "Ġ in",
      "o u",
      "a n",
      "a l",
      "o r",
      "u p",
      "r o",
      "Ġ d",
      "p o",
      "Ġ g",
      "Ġc up",
      "Ġ l",
      "po on",
      "u n",
      "Ġ 1",
      "a c",
      "Ġc o",
      "p p",
      "re d",
      "e l",
      "i s",
      "i on",
      "it h",
      "Ġw ith",
      "v e",
      "Ġc h",
      "Ġ on",
      "Ġo f",
      "o w",
      "a k",
      "t s",
      "g e",
      "a b",
      "Ġm in",
      "Ġ e",
      "d d",
      "Ġ un",
      "o t",
      "t il",
      "t o",
      "e as",
      "l y",
      "l es",
      "Ġ h",
      "c e",
      "Ġ (",
      "ou r",
      "a m",
      "u s",
      "Ġun til",
      "v er",
      "t er",
      "o l",
      "g h",
      "Ġf or",
      "I n",
      "Ġo r",
      "o k",
      "Ġp e",
      "ion s",
      "i x",
      "Ġs t",
      "r a",
      "r i",
      "i en",
      "ab les",
      "Ġmin ut",
      "red ien",
      "redien ts",
      "i r",
      "al t",
      "Ġ C",
      "l ic",
      "ic k",
      "u m",
      "c t",
      "eas poon",
      "Ġt easpoon",
      "ables poon",
      "Ġ S",
      "he at",
      "Ġminut es",
      "Ġ re",
      "e t",
      "i re",
      "as t",
      "pp er",
      "Ġt ablespoon",
      "a d",
      "Ġt h",
      "il l",
      "Ġm ix",
      "c h",
      "g ar",
      "i d",
      "ire ct",
      "Ġin to",
      "in e",
      "u ce",
      "Ġb e",
      "Ġs a",
      "Ġpe pper",
      "irect ions",
      "Ġch o",
      "In g",
      "D irections",
      "Ing redients",
      "it le",
      "T itle",
      "Ġ le",
      "Ġs alt",
      "Ġs u",
      "A dd",
      "Ġ 3",
      "ak e",
      "Ġco ok",
      "Ġ 2",
      "re s",
      "l l",
      "Ġf l",
      "Ġb ut",
      "Ġo il",
      "Ġo ver",
      "ic e",
      "Ġ heat",
      "u re",
      "u r",
      "l ac",
      "Ġg r",
      "i gh",
      "pp ed",
      "o m",
      "Ġ y",
      "es e",
      "s p",
      "Ġ n",
      "at er",
      "Ġ j",
      "Ġc he",
      "i m",
      "Ġsu gar",
      "g g",
      "o ut",
      "Ġ P",
      "al l",
      "ou nd",
      "Ġ r",
      "Ġsa uce",
      "at o",
      "Ġcup s",
      "c es",
      "Ġw h",
      "Ġs p",
      "Ġbut ter",
      "r y",
      "Ġ B",
      "ick en",
      "ar ge",
      "Ġw ater",
      "Ġtablespoon s",
      "at e",
      "ed i",
      "Ġb ro",
      "ow l",
      "Ġb owl",
      "v en",
      "e m",
      "Ġp an",
      "Ġl arge",
      "Ġ T",
      "Ġcho pped",
      "he r",
      "Ġa b",
      "re am",
      "Ġe gg",
      "a y",
      "Ġg ar",
      "edi um",
      "Ġa dd",
      "e at",
      "q u",
      "Ġche ese",
      "Ġ it",
      "Ġm edium",
      "ou gh",
      "Ġs h",
      "Ġab out",
      "ac h",
      "Ġs lic",
      "Ġs m",
      "Ġ is",
      "res h",
      "s t",
      "el l",
      "Ġf ro",
      "t ure",
      "igh t",
      "Ġc r",
      "Ġs o",
      "el y",
      "o ve",
      "i p",
      "Ġst ir",
      "lac e",
      "v es",
      "i e",
      "w n",
      "Ġgar lic",
      "ge t",
      "Ġmix ture",
      "ac k",
      "Ġo un",
      "id e",
      "Ġc ream",
      "r ing",
      "Ġch icken",
      "is h",
      "Ġfl our",
      "ak ing",
      "Ġ F",
      "o il",
      "a in",
      "Ġre m",
      "Ġ v",
      "re ad",
      "Ġo ven",
      "Ġs e",
      "us t",
      "1 2",
      "C o",
      "a p",
      "Ġf resh",
      "m on",
      "l i",
      "Ġ M",
      "Ġa s",
      "ato es",
      "Ġc an",
      "Ġ ro",
      "Ġ 4",
      "Ġa ll",
      "er ve",
      "Ġbro wn",
      "Ġfro m",
      "Ġb aking",
      "o s",
      "il k",
      "Ġon ion",
      "i f",
      "Ġj u",
      "Ġp ot",
      "Ġa t",
      "Ġe ach",
      "an s",
      "o d",
      "Ġco m",
      "Ġs k",
      "Ġp l",
      "Ġ R",
      "ar s",
      "Ġc ut",
      "o re",
      "Ġa n",
      "le t",
      "ra in",
      "Ġto m",
      "at ed",
      "b sp",
      "Ġo li",
      "nd er",
      "Ġto p",
      "Ġju ice",
      "ast e",
      "Ġd e",
      "Ġsm all",
      "in ch",
      "u l",
      "Ġb oil",
      "Ġm ilk",
      "Ġw ell",
      "Ġ k",
      "S t",
      "en t",
      "b ine",
      "Ġ red",
      "ol d",
      "ow d",
      "Ġh al",
      "ar m",
      "o p",
      "c ol",
      "Ġg re",
      "Ġp ie",
      "Ġ 5",
      "Ġ G",
      "eas on",
      "Ġthe n",
      "ĠC h",
      "Ġgr ound",
      "Ġoli ve",
      "P lace",
      "t ed",
      "im m",
      "Ġrem ain",
      "an t",
      "g er",
      "ight ly",
      "Ġt sp",
      "ar d",
      "in k",
      "a v",
      "Ġy ou",
      "Ġp owd",
      "Ġ W",
      "it e",
      "Ġ O",
      "s e",
      "t h",
      "Ġremain ing",
      "Ġ ing",
      "c ed",
      "us h",
      "ur n",
      "Ġing redients",
      "a nd",
      "Ġc l",
      "Ġ us",
      "Ġa re",
      "Ġle mon",
      "Ġe x",
      "f f",
      "Ġs he",
      "o od",
      "Ġteaspoon s",
      "Ġ D",
      "5 0",
      "or n",
      "Ġegg s",
      "Ġc on",
      "a g",
      "o le",
      "b er",
      "b s",
      "c k",
      "e f",
      "St ir",
      "1 4",
      "er v",
      "em ove",
      "a ge",
      "Ġ A",
      "R emove",
      "Ġ1 0",
      "he n",
      "r ink",
      "lac k",
      "ot h",
      "Ġh our",
      "Ġpowd er",
      "Ġ ve",
      "col ate",
      "g re",
      "u b",
      "Ġslic ed",
      "ion al",
      "Ġoun ces",
      "il let",
      "Ġle a",
      "S p",
      "Ġ L",
      "Ġhal f",
      "B ake",
      "Ġd ough",
      "Ġco ol",
      "e p",
      "Ġon ions",
      "get her",
      "Ġto gether",
      "f t",
      "Ġl i",
      "Ġoun ce",
      "imm er",
      "res s",
      "Ġl ow",
      "ar t",
      "re heat",
      "m e",
      "ill a",
      "Ġa l",
      "Ġ up",
      "w e",
      "Ġstir ring",
      "Ġsk illet",
      "on e",
      "im e",
      "Ġgre en",
      "Ġo ut",
      "an illa",
      "Ġb read",
      "Ġ1 2",
      "rink le",
      "i z",
      "Ġt aste",
      "Ġh ot",
      "Ġb lack",
      "Ġtom atoes",
      "a re",
      "Ġm el",
      "Ġb le",
      "Ġt bsp",
      "Ġf in",
      "l d",
      "Ġmin ced",
      "Ġve get",
      "Ġv anilla",
      "ip e",
      "Ġt e",
      "f er",
      "erv ing",
      "Ġ if",
      "Co ok",
      "Ġde gre",
      ") .",
      "Ġslic es",
      "S erve",
      "Ġy our",
      "Ġthe m",
      "ces s",
      "Ġm eat",
      "Ġle t",
      "Ġs l",
      "M ix",
      "Ġcho colate",
      "he d",
      "c o",
      "Ġ he",
      "Ġc orn",
      "il e",
      "is k",
      "H eat",
      "Ġd ry",
      "Ġso ft",
      "i es",
      "as h",
      "Ġex t",
      "P our",
      "Ġs eason",
      "an ge",
      "ri ed",
      "p an",
      "Ġs et",
      "ri ger",
      "ab le",
      "as s",
      "a ve",
      "or k",
      "Ġdegre es",
      "ra p",
      "c ipe",
      "le y",
      "Ġcook ed",
      "Ġp ast",
      "is e",
      "Ġp ack",
      "Ġs immer",
      "os s",
      "u ff",
      "Ġm ore",
      "Ġp ound",
      "Ġ3 0",
      "Ġr ice",
      "Ġp re",
      "Ġwh ite",
      "ri m",
      "Ġth r",
      "Ġpie ces",
      "Ġpot atoes",
      "k e",
      "we et",
      "er s",
      "Ġp ap",
      "P reheat",
      "ic ed",
      "ut s",
      "ut e",
      "Ġs erving",
      "in n",
      "ou p",
      "Ġc ar",
      "Ġs ide",
      "ars ley",
      "Ġfin ely",
      "Ġpe el",
      "Ġp lace",
      "Ġco ver",
      "Ġlea ves",
      "ro om",
      "Ġp ro",
      "ine gar",
      "Ġse ed",
      "Ġs to",
      "Ġs erve",
      "Ġd ish",
      "he s",
      "ush room",
      "Ġ H",
      "Ġsauce pan",
      "Ġl b",
      "r ans",
      "Ġn e",
      "Ġ3 50",
      "Ġ I",
      "Ġte nder",
      "Ġas ide",
      "ĠC he",
      "Ġ1 5",
      "Ġd rain",
      "om bine",
      "u e",
      "Ġwh ole",
      "Ġbe at",
      "c on",
      "Ġm ar",
      "Ġcom bine",
      "Ġp arsley",
      "Ġv inegar",
      "Ġ 8",
      "Ġshe et",
      "in s",
      "Ġn ot",
      "Ġa pp",
      "' s",
      "Ġw arm",
      "o ves",
      "Co ver",
      "Ġg old",
      "en ed",
      "ak es",
      "c c",
      "ri es",
      "Ġth in",
      "i b",
      "n e",
      "Ġgold en",
      "Ġb ot",
      "o oth",
      "C ombine",
      "rans fer",
      "Ġj ust",
      "Ġ qu",
      "Ġl ightly",
      "at ter",
      "Ġcl oves",
      "0 0",
      ". )",
      "Ġ 6",
      "Ġmel ted",
      "es t",
      "k s",
      "Ġcook ing",
      "re e",
      "Ġm ushroom",
      "Ġ E",
      "am e",
      "Ġsm ooth",
      "e w",
      "Ġs al",
      "Ġhour s",
      "Ġble nd",
      "Ġre f",
      "Ġthr ough",
      "Ġbe ans",
      "Ġon e",
      "ra y",
      "i v",
      "Ġgr ated",
      "Ġro ll",
      "s s",
      "Ġs c",
      "to m",
      "Ġw ill",
      "Ġ -",
      "ĠT bsp",
      "am on",
      "f ore",
      "es s",
      "Ġbe ef",
      "Ġ2 0",
      "Ġd iced",
      "p s",
      "pp ing",
      "inn amon",
      "p er",
      "Ġcr um",
      "Ġbe fore",
      "Ġt ill",
      "d ed",
      "d s",
      "Ġl o",
      "s alt",
      "Ġth ick",
      "Ġli qu",
      "Ġtom ato",
      "Ġt urn",
      "Ġref riger",
      "i an",
      "C ut",
      "ing er",
      "Ġus e",
      "at ely",
      "om e",
      "Ġw ine",
      "Ġin ch",
      "ust ard",
      "Ġm ake",
      "Ġc ake",
      "oss ib",
      "Ġp ossib",
      "ress ing",
      "t le",
      "red ded",
      "ad e",
      "Ġbot tom",
      "Ġbro th",
      "id es",
      "Ġch il",
      "t e",
      "Ġb y",
      "Ġ K",
      "ac on",
      "u c",
      "Ġa r",
      "ĠS a",
      "Ġs qu",
      "Ġpap er",
      "Ġ z",
      "til l",
      "ver y",
      "z z",
      "Ġt em",
      "Ġpast a",
      "Ġd ried",
      "Sp rinkle",
      "Ġcar ro",
      "Ġ V",
      "Ġc innamon",
      "Ġb as",
      "Ġ en",
      "Ġh igh",
      "l ow",
      "ĠChe ese",
      "Ġof f",
      "Ġs ides",
      "Ġcon t",
      "ast ed",
      "ent ly",
      "at ure",
      "Ġpeel ed",
      "g in",
      "ĠP e",
      "Ġb re",
      "n ish",
      "Ġl ay",
      "al ly",
      "er y",
      "g es",
      "Ġs oup",
      "Ġ &",
      "Ġst e",
      "ĠR e",
      "Ġwh isk",
      "or t",
      "Ġo z",
      "Ġsto ck",
      "Ġpossib ly",
      "Ġf ir",
      "Ġd is",
      "Ġtem per",
      "Ġliqu id",
      "v ed",
      "av y",
      "Ġmushroom s",
      "Ġe ven",
      "Ġrem ove",
      "es an",
      "arm esan",
      "Ġf ill",
      "Ġtemper ature",
      "ow n",
      "Ġt ime",
      "1 0",
      "e e",
      "Ġm ay",
      "Ġth is",
      "Ġpro cess",
      "el ery",
      "Ġs poon",
      "ac t",
      "ĠCh icken",
      "Ġveget able",
      "Ġb ake",
      "W hen",
      "in i",
      "L et",
      "u it",
      "P ut",
      "Ġpepper s",
      "Ġf ry",
      "Ġgr ill",
      "ou s",
      "ar ch",
      "Ġon to",
      "Ġhe avy",
      "ip s",
      "Ġb acon",
      "rim p",
      "Ġ x",
      "Ġd own",
      "ĠRe cipe",
      "ou n",
      "p e",
      "T ransfer",
      "ĠC o",
      "Ġminut e",
      "Ġpre p",
      "Ġc ub",
      "Ġg l",
      "t ional",
      "Ġst ick",
      "ber ries",
      "Ġor ange",
      "Ġg inger",
      "am s",
      "B ring",
      "Ġc elery",
      "Ġr ack",
      "W h",
      "Ġseed s",
      "Ġseason ing",
      "ter s",
      "Ġfresh ly",
      "f ul",
      "Ġext ra",
      "I f",
      "S eason",
      "on g",
      "Ġp ork",
      "ĠS t",
      "Ġm l",
      "Ġre s",
      "n a",
      "Ġb ring",
      "Ġsh redded",
      "Ġsa ute",
      "Ġs our",
      "T he",
      "Ġveget ables",
      "ou ld",
      "Ġm ustard",
      "Ġ ice",
      "z en",
      "Ġth at",
      "in ed",
      "ed ges",
      "c hes",
      "z e",
      "Ġco at",
      "Ġd es",
      "i red",
      "Ġcom p",
      "Ġco ld",
      "Ġm o",
      "D rain",
      "po se",
      "Ġo cc",
      "Ġto r",
      "Ġsp rinkle",
      "us hed",
      "ional ly",
      "Ġ N",
      "Ġsl ightly",
      "Ġch ill",
      "ur pose",
      "Ġro om",
      "Ġf ood",
      "Ġp our",
      "Ġus ing",
      "Ġocc as",
      "ic h",
      "one y",
      "Ġ ri",
      "Ġsp ray",
      "is t",
      "Ġoccas ionally",
      "y r",
      "e ep",
      "ro w",
      "Ġso d",
      "Ġpack age",
      "Ġ ra",
      "yr up",
      "ant ro",
      "ĠCh o",
      "Ġpl ate",
      "Ġbrown ed",
      "ĠG r",
      "Ġl it",
      "il antro",
      "Ġbas il",
      "an o",
      "Ġsh all",
      "Ġto ss",
      "e an",
      "Ġcomp let",
      "r act",
      "ot her",
      "Ġthe y",
      "1 3",
      "Ġf oil",
      "T o",
      "Ġt w",
      "Ġslic e",
      "Ġc en",
      "Ġh and",
      "o g",
      "um in",
      "Ġan y",
      "Ġdes ired",
      "Ġ 9",
      "ĠS al",
      "Ġh ave",
      "y me",
      "Ġ J",
      "a f",
      "Ġb atter",
      "t her",
      "Ġl ime",
      "ĠS p",
      "Sp read",
      "T op",
      "ĠSa uce",
      "Ġs weet",
      "ut ter",
      "Ġb ag",
      "Ġeven ly",
      "Ġsoft ened",
      "Ġcomplet ely",
      "Ġext ract",
      "av or",
      "a red",
      "Ġso y",
      "ar y",
      "in ach",
      "Ġs ome",
      "Ġboil ing",
      "Ġcr ushed",
      "Ġlit tle",
      "Ġsod a",
      "7 5",
      "h igh",
      "Ġs yrup",
      "Ġan other",
      "Ġcen ter",
      "ir gin",
      "Ġ very",
      "ab out",
      "r ush",
      "f at",
      "Ġlay er",
      "is p",
      "Ġf at",
      "e red",
      "Ġd ressing",
      "Ġth yme",
      "p urpose",
      "Ġcarro ts",
      "Ġcr ust",
      "b le",
      "o y",
      "Ġsk in",
      "Ġdrain ed",
      "el s",
      "r ange",
      "st ant",
      "l ed",
      "Ġfill ing",
      "Ġsh rimp",
      "iz e",
      "Ġli ke",
      "Ġl ight",
      "Ġc ilantro",
      "Ġthin ly",
      "Ġgr ams",
      "Ġne ed",
      "w h",
      "Ġfro zen",
      "ast ic",
      "Ġchil i",
      ") ,",
      "as e",
      "2 5",
      "pp le",
      "ac e",
      "Ġp aste",
      "t al",
      "Ġch ips",
      "Ġc le",
      "Ġfor m",
      "Ġf ish",
      "Ġd one",
      "ĠC ream",
      "Ġcrum bs",
      "F or",
      "B eat",
      "ĠT ablespoon",
      "Ġo ther",
      "Ġco ars",
      "ol l",
      "op tional",
      "a w",
      "Ġf r",
      "Ġst ri",
      "Ġb ell",
      "salt ed",
      "Ġtor till",
      "Ġprep ared",
      "S et",
      "Ġn on",
      "ĠW h",
      "e ed",
      "ĠS h",
      "Ġal mon",
      "Ġst and",
      "f ter",
      "ve red",
      "Ġse con",
      "ood les",
      "e ts",
      "Ġre cipe",
      "ber ry",
      "Ġgar nish",
      "con ut",
      "S alt",
      "Ġpl astic",
      "T h",
      "an g",
      "um p",
      "Ġb l",
      "iv id",
      "Ġh oney",
      "Ġprocess or",
      "ri zz",
      "ough ly",
      "ok ed",
      "Ġp ut",
      "C h",
      "Ġh as",
      "Ġpl us",
      "Ġsh ould",
      "Ġmar in",
      "Ġb all",
      "as ed",
      "k a",
      "on na",
      "Ġblend ed",
      "ic row",
      "Ġto w",
      "Ġy ol",
      "onna ise",
      "Ġp ure",
      "Ġsp read",
      "Ġb it",
      "Ġth icken",
      "dd ar",
      "Ġcr isp",
      "am b",
      "ra w",
      "Ġun salted",
      "Ġble nder",
      "Ġsal ad",
      "re g",
      "Ġfir m",
      "Ġg ently",
      "Ġmix ing",
      "i a",
      "Ġd o",
      "1 5",
      "Ġsu r",
      "Ġw rap",
      "Ġw hen",
      "t ing",
      "ĠP armesan",
      "edi ately",
      "Ġco l",
      "i g",
      "m ent",
      "Ġtw o",
      "st ick",
      "es ame",
      "Ġn uts",
      "icrow ave",
      "Ġn oodles",
      "t t",
      "ad y",
      "ĠC r",
      "Co ol",
      "us age",
      "in ue",
      "Ġmix er",
      "ke y",
      "Ġen ough",
      "Ġsp inach",
      "O n",
      "Ġste ak",
      "ĠPe pper",
      "ur t",
      "Ġz est",
      "i ve",
      "Ġcook ie",
      "Ġle ast",
      "n uts",
      "en ne",
      "ur key",
      "Ġk n",
      "Ġco vered",
      "ic es",
      "reg ano",
      "Ġsur f",
      "Ġsc all",
      "r ic",
      "3 4",
      "S poon",
      "Ġstri ps",
      "Ġk eep",
      "Ġl en",
      "os her",
      "i pped",
      "rizz le",
      "U s",
      "Ġsurf ace",
      "Ġro ast",
      "ass er",
      "wh ile",
      "ak ed",
      "Ġc umin",
      "o c",
      "Ġcub es",
      "Ġpound s",
      "Ġcle an",
      "w ise",
      "Ġcl ove",
      "Ġre st",
      "ĠS alt",
      "asser ole",
      "gar ine",
      "Ġp inch",
      "Ġr ound",
      "Ġpe an",
      "Y ou",
      "Ġcr ack",
      "Ġf ew",
      "an an",
      "ean while",
      "og urt",
      "Ġb on",
      "Ġgl ass",
      "Ġar ound",
      "ĠB utter",
      "Ġcont ain",
      "Ġf ree",
      "on t",
      "Ġshe ll",
      "Ġn ut",
      "Ġapp les",
      "Us ing",
      "iz z",
      "Ġ imm",
      "M eanwhile",
      "Ġco conut",
      "Ġp ine",
      "Ġin s",
      "Ġimm ediately",
      "Ġo regano",
      "ell ow",
      "Ġrefriger ate",
      "ĠSal ad",
      "tal ian",
      "ar ts",
      "o ts",
      "Ġb oth",
      "Ġb un",
      "Ġp k",
      "Ġpast ry",
      "1 6",
      "Ġbeat en",
      "Ġmar garine",
      "Ġre ady",
      "as ts",
      "Ġgr an",
      "Ġe nd",
      "ĠI talian",
      "1 8",
      "it es",
      "T urn",
      "if e",
      "Ġ u",
      "at or",
      "erv ed",
      "s a",
      "Ġ3 75",
      "ay enne",
      "Ġapp le",
      "Ġb ack",
      "Ġcom b",
      "' t",
      "ĠB e",
      "Ġo p",
      "Ġfor k",
      "ri ka",
      "c col",
      "Ġmay onnaise",
      "are ful",
      "Ġkn ife",
      "at t",
      "Ġb ay",
      "p ar",
      "t uce",
      "me g",
      "R ef",
      "l ing",
      "ab b",
      "ĠG ar",
      "Ġfl akes",
      "R ed",
      "ccol i",
      "k in",
      "Ġ 7",
      "ivid ed",
      "n ed",
      "ro wn",
      "Ġadd it",
      "Ġto asted",
      "ĠO n",
      "riger ate",
      "Ġin ches",
      "a pple",
      "Ġsp eed",
      "e c",
      "s ol",
      "Wh isk",
      "Ġsa usage",
      "Ġg ra",
      "Ġs esame",
      "Ġpot ato",
      "Ġy ogurt",
      "u ally",
      "in d",
      "Ġc ur",
      "Ġ4 00",
      "Ġsecon ds",
      "Ġpk g",
      "Ġfry ing",
      "Red uce",
      "ar k",
      "les s",
      "ul a",
      "x t",
      "Ġrefriger ator",
      "Ref rigerate",
      "g th",
      "Ġ edges",
      "Ġc ro",
      "Ġb o",
      "in t",
      "Ġ2 5",
      "Ġrem o",
      "st arch",
      "ĠT o",
      "Ġcontain er",
      "ĠF or",
      "uc ch",
      "Ġp er",
      "at es",
      "ĠP ot",
      "c ard",
      "Ġpie ce",
      "iv ide",
      "Ġwh ites",
      "Ġfr uit",
      "Ġcoars ely",
      "Ġse par",
      "f e",
      "Ġwh ile",
      "Ġto pping",
      "j oy",
      "Ġcrum b",
      "ucch ini",
      "Ġd ay",
      "Ġnut meg",
      "u ll",
      "u gar",
      "ĠCho colate",
      "dd le",
      "Ġlea f",
      "Ġlen gth",
      "u ch",
      "ll a",
      "Th is",
      "ar b",
      "abb age",
      "Ġ4 5",
      "Ġy ellow",
      "as hed",
      "Ġa g",
      "ĠT om",
      "g s",
      "oun ce",
      "ĠW ith",
      "Ġp ress",
      "Ġneed ed",
      "Ġlet tuce",
      "or oughly",
      "Ġfl avor",
      "Ġturn ing",
      "Ġpe c",
      "ap en",
      "ul ated",
      "u dd",
      "Ġc ayenne",
      "ĠGar lic",
      "Ġst raw",
      "s em",
      "are lla",
      "m ed",
      "Ġ1 4",
      "w ay",
      "Ġyol ks",
      "Ġgre ased",
      "Ġpure e",
      "Ġt urkey",
      "Ġto o",
      "Ġcorn starch",
      "um ber",
      "Ġpap rika",
      "Ġred uce",
      "Ġcomb ined",
      "Ġ1 3",
      "or d",
      "Ġf ine",
      "zz arella",
      "udd ing",
      "Ġch i",
      "Ġsl ow",
      "ap e",
      "Ġche r",
      "Ġalmon ds",
      "g r",
      "ĠE gg",
      "iz ed",
      "ub b",
      "izz a",
      "Ġp o",
      ". .",
      "Ġbre asts",
      "Ġs ize",
      "Ġshe ets",
      "al apen",
      "Ġa v",
      "Ġw al",
      "Ġall ow",
      "Ġth oroughly",
      "stant ly",
      "al s",
      "ĠTablespoon s",
      "Ġqu art",
      "ur ger",
      "el ess",
      "Ġd ivided",
      "Ġcon stantly",
      "Ġa fter",
      "el t",
      "Ġon ce",
      "Ġb et",
      "Ġmix ed",
      "Ġt ransfer",
      "Ġp eas",
      "p l",
      "am el",
      "On ce",
      "Ġ In",
      "uc umber",
      "Ġm icrowave",
      "Ġb anan",
      "Ġd i",
      "co a",
      "Ġw a",
      "Ġc asserole",
      "on ger",
      "Ġch un",
      "m ilk",
      "Ġpean ut",
      "c r",
      "re n",
      "Ġdis sol",
      "ĠF l",
      "R oll",
      "Ġfir st",
      "a i",
      "le ts",
      "Ġpine apple",
      "s o",
      "Ġm uff",
      "Ġl onger",
      "Ġl bs",
      "Ġcook ies",
      "ing s",
      "le nd",
      "Ġa p",
      "M ake",
      "arch ment",
      "ump kin",
      "R A",
      "Ġw ork",
      "ol a",
      "Ġst em",
      "T hen",
      "Ġsh ort",
      "Ġ 0",
      "o f",
      "U se",
      "Ġf old",
      "Ġsp ri",
      "ĠA nd",
      "Ġp archment",
      "Ġchill ed",
      "T oss",
      "n ight",
      "re p",
      "Ġpack ed",
      "Ġa m",
      "a il",
      "Ġz ucchini",
      "Ġmarin ade",
      "Ġbro ccoli",
      "Ġa cc",
      "oc ad",
      "Ġche ddar",
      "Ġp reheat",
      "Ġb at",
      "c or",
      "Ġcho p",
      "Ġmin t",
      "Ġag ain",
      "A r",
      "G ar",
      "Ġoli ves",
      "Ġbro il",
      "F old",
      "Ġra is",
      "Ġcom es",
      "Ġw edges",
      "Ġcan s",
      "lic e",
      "Ġheat ed",
      "Ġde ep",
      "ove red",
      "Ġlow fat",
      "Ġsu re",
      "Ġc abbage",
      "Ġbre ast",
      "h ire",
      "G r",
      "Ġgran ulated",
      "Ġres erved",
      "p t",
      "Ġpowd ered",
      "Ġcont inue",
      "Ġover night",
      "Ġco coa",
      "ou red",
      "Ġsqu ash",
      "l o",
      "Ġtortill as",
      "Ġl ong",
      "R ep",
      "c overed",
      "Ar range",
      "Ġl id",
      "ĠT h",
      "Ġmel t",
      "at s",
      "u ck",
      "Ġh am",
      "Ġp armesan",
      "u ced",
      "Ġw e",
      "ĠF resh",
      "H I",
      "ĠV e",
      "E R",
      "ters hire",
      "c ake",
      "Ġpl atter",
      "Ġbon eless",
      "areful ly",
      "Ġw ire",
      "if t",
      "Ġv irgin",
      "ff ee",
      "Ġcarro t",
      "oun t",
      "or ces",
      "le ct",
      "Ġb rush",
      "Ġp it",
      "ĠS ugar",
      "eas t",
      "2 0",
      "Ġwh ipped",
      "Ġu nder",
      "Ġwal nuts",
      "orces tershire",
      "Ġj alapen",
      "s weet",
      "Ġpec ans",
      "Ġa d",
      "Ġus ed",
      "S immer",
      "Rep eat",
      "ct ion",
      "Ġadd ing",
      "Ġseed ed",
      "Ġscall ions",
      "m er",
      "Ġth aw",
      "Gar nish",
      "Ġm od",
      "or ated",
      "S a",
      "Ġd ash",
      "at in",
      "Ġlength wise",
      "d ually",
      "ĠR ed",
      "em on",
      "Ġn o",
      "M elt",
      "rim med",
      "Ġj ar",
      "Ġex cess",
      "Ġremo ved",
      "ĠCo ok",
      "ag es",
      "Ġlo af",
      "v irgin",
      "Ġd ark",
      "Ġf il",
      "Ġc ucumber",
      "Ġg o",
      "Ġfl at",
      "Ġcan ned",
      "Ġhal ved",
      "Ġmod er",
      "Ġe very",
      "ro p",
      "Ġthr u",
      "Ġb ubb",
      "ĠR o",
      "ag us",
      "sp ar",
      "spar agus",
      "Ġnon stick",
      "im es",
      "ol low",
      "f ry",
      "Ġ $",
      "Ġc re",
      "Ġrais ins",
      "Ġ0 2",
      "D ivide",
      "Ġ her",
      "Ġy east",
      "Ġball s",
[...]
